{
  "version": "1.0",
  "truncation": null,
  "padding": null,
  "added_tokens": [
    {
      "id": 0,
      "content": "<pad>",
      "single_word": false,
      "lstrip": false,
      "rstrip": false,
      "normalized": false,
      "special": true
    },
    {
      "id": 1,
      "content": "<eos>",
      "single_word": false,
      "lstrip": false,
      "rstrip": false,
      "normalized": false,
      "special": true
    },
    {
      "id": 2,
      "content": "<bos>",
      "single_word": false,
      "lstrip": false,
      "rstrip": false,
      "normalized": false,
      "special": true
    },
    {
      "id": 3,
      "content": "<unk>",
      "single_word": false,
      "lstrip": false,
      "rstrip": false,
      "normalized": false,
      "special": true
    },
    {
      "id": 4,
      "content": "<mask>",
      "single_word": false,
      "lstrip": false,
      "rstrip": false,
      "normalized": false,
      "special": true
    },
    {
      "id": 5,
      "content": "[multimodal]",
      "single_word": false,
      "lstrip": false,
      "rstrip": false,
      "normalized": false,
      "special": true
    },
    {
      "id": 6,
      "content": "<unused0>",
      "single_word": false,
      "lstrip": false,
      "rstrip": false,
      "normalized": false,
      "special": true
    },
    {
      "id": 7,
      "content": "<unused1>",
      "single_word": false,
      "lstrip": false,
      "rstrip": false,
      "normalized": false,
      "special": true
    },
    {
      "id": 8,
      "content": "<unused2>",
      "single_word": false,
      "lstrip": false,
      "rstrip": false,
      "normalized": false,
      "special": true
    },
    {
      "id": 9,
      "content": "<unused3>",
      "single_word": false,
      "lstrip": false,
      "rstrip": false,
      "normalized": false,
      "special": true
    },
    {
      "id": 10,
      "content": "<unused4>",
      "single_word": false,
      "lstrip": false,
      "rstrip": false,
      "normalized": false,
      "special": true
    },
    {
      "id": 11,
      "content": "<unused5>",
      "single_word": false,
      "lstrip": false,
      "rstrip": false,
      "normalized": false,
      "special": true
    },
    {
      "id": 12,
      "content": "<unused6>",
      "single_word": false,
      "lstrip": false,
      "rstrip": false,
      "normalized": false,
      "special": true
    },
    {
      "id": 13,
      "content": "<unused7>",
      "single_word": false,
      "lstrip": false,
      "rstrip": false,
      "normalized": false,
      "special": true
    },
    {
      "id": 14,
      "content": "<unused8>",
      "single_word": false,
      "lstrip": false,
      "rstrip": false,
      "normalized": false,
      "special": true
    },
    {
      "id": 15,
      "content": "<unused9>",
      "single_word": false,
      "lstrip": false,
      "rstrip": false,
      "normalized": false,
      "special": true
    },
    {
      "id": 16,
      "content": "<unused10>",
      "single_word": false,
      "lstrip": false,
      "rstrip": false,
      "normalized": false,
      "special": true
    },
    {
      "id": 17,
      "content": "<unused11>",
      "single_word": false,
      "lstrip": false,
      "rstrip": false,
      "normalized": false,
      "special": true
    },
    {
      "id": 18,
      "content": "<unused12>",
      "single_word": false,
      "lstrip": false,
      "rstrip": false,
      "normalized": false,
      "special": true
    },
    {
      "id": 19,
      "content": "<unused13>",
      "single_word": false,
      "lstrip": false,
      "rstrip": false,
      "normalized": false,
      "special": true
    },
    {
      "id": 20,
      "content": "<unused14>",
      "single_word": false,
      "lstrip": false,
      "rstrip": false,
      "normalized": false,
      "special": true
    },
    {
      "id": 21,
      "content": "<unused15>",
      "single_word": false,
      "lstrip": false,
      "rstrip": false,
      "normalized": false,
      "special": true
    },
    {
      "id": 22,
      "content": "<unused16>",
      "single_word": false,
      "lstrip": false,
      "rstrip": false,
      "normalized": false,
      "special": true
    },
    {
      "id": 23,
      "content": "<unused17>",
      "single_word": false,
      "lstrip": false,
      "rstrip": false,
      "normalized": false,
      "special": true
    },
    {
      "id": 24,
      "content": "<unused18>",
      "single_word": false,
      "lstrip": false,
      "rstrip": false,
      "normalized": false,
      "special": true
    },
    {
      "id": 25,
      "content": "<unused19>",
      "single_word": false,
      "lstrip": false,
      "rstrip": false,
      "normalized": false,
      "special": true
    },
    {
      "id": 26,
      "content": "<unused20>",
      "single_word": false,
      "lstrip": false,
      "rstrip": false,
      "normalized": false,
      "special": true
    },
    {
      "id": 27,
      "content": "<unused21>",
      "single_word": false,
      "lstrip": false,
      "rstrip": false,
      "normalized": false,
      "special": true
    },
    {
      "id": 28,
      "content": "<unused22>",
      "single_word": false,
      "lstrip": false,
      "rstrip": false,
      "normalized": false,
      "special": true
    },
    {
      "id": 29,
      "content": "<unused23>",
      "single_word": false,
      "lstrip": false,
      "rstrip": false,
      "normalized": false,
      "special": true
    },
    {
      "id": 30,
      "content": "<unused24>",
      "single_word": false,
      "lstrip": false,
      "rstrip": false,
      "normalized": false,
      "special": true
    },
    {
      "id": 31,
      "content": "<unused25>",
      "single_word": false,
      "lstrip": false,
      "rstrip": false,
      "normalized": false,
      "special": true
    },
    {
      "id": 32,
      "content": "<unused26>",
      "single_word": false,
      "lstrip": false,
      "rstrip": false,
      "normalized": false,
      "special": true
    },
    {
      "id": 33,
      "content": "<unused27>",
      "single_word": false,
      "lstrip": false,
      "rstrip": false,
      "normalized": false,
      "special": true
    },
    {
      "id": 34,
      "content": "<unused28>",
      "single_word": false,
      "lstrip": false,
      "rstrip": false,
      "normalized": false,
      "special": true
    },
    {
      "id": 35,
      "content": "<unused29>",
      "single_word": false,
      "lstrip": false,
      "rstrip": false,
      "normalized": false,
      "special": true
    },
    {
      "id": 36,
      "content": "<unused30>",
      "single_word": false,
      "lstrip": false,
      "rstrip": false,
      "normalized": false,
      "special": true
    },
    {
      "id": 37,
      "content": "<unused31>",
      "single_word": false,
      "lstrip": false,
      "rstrip": false,
      "normalized": false,
      "special": true
    },
    {
      "id": 38,
      "content": "<unused32>",
      "single_word": false,
      "lstrip": false,
      "rstrip": false,
      "normalized": false,
      "special": true
    },
    {
      "id": 39,
      "content": "<unused33>",
      "single_word": false,
      "lstrip": false,
      "rstrip": false,
      "normalized": false,
      "special": true
    },
    {
      "id": 40,
      "content": "<unused34>",
      "single_word": false,
      "lstrip": false,
      "rstrip": false,
      "normalized": false,
      "special": true
    },
    {
      "id": 41,
      "content": "<unused35>",
      "single_word": false,
      "lstrip": false,
      "rstrip": false,
      "normalized": false,
      "special": true
    },
    {
      "id": 42,
      "content": "<unused36>",
      "single_word": false,
      "lstrip": false,
      "rstrip": false,
      "normalized": false,
      "special": true
    },
    {
      "id": 43,
      "content": "<unused37>",
      "single_word": false,
      "lstrip": false,
      "rstrip": false,
      "normalized": false,
      "special": true
    },
    {
      "id": 44,
      "content": "<unused38>",
      "single_word": false,
      "lstrip": false,
      "rstrip": false,
      "normalized": false,
      "special": true
    },
    {
      "id": 45,
      "content": "<unused39>",
      "single_word": false,
      "lstrip": false,
      "rstrip": false,
      "normalized": false,
      "special": true
    },
    {
      "id": 46,
      "content": "<unused40>",
      "single_word": false,
      "lstrip": false,
      "rstrip": false,
      "normalized": false,
      "special": true
    },
    {
      "id": 47,
      "content": "<unused41>",
      "single_word": false,
      "lstrip": false,
      "rstrip": false,
      "normalized": false,
      "special": true
    },
    {
      "id": 48,
      "content": "<unused42>",
      "single_word": false,
      "lstrip": false,
      "rstrip": false,
      "normalized": false,
      "special": true
    },
    {
      "id": 49,
      "content": "<unused43>",
      "single_word": false,
      "lstrip": false,
      "rstrip": false,
      "normalized": false,
      "special": true
    },
    {
      "id": 50,
      "content": "<unused44>",
      "single_word": false,
      "lstrip": false,
      "rstrip": false,
      "normalized": false,
      "special": true
    },
    {
      "id": 51,
      "content": "<unused45>",
      "single_word": false,
      "lstrip": false,
      "rstrip": false,
      "normalized": false,
      "special": true
    },
    {
      "id": 52,
      "content": "<unused46>",
      "single_word": false,
      "lstrip": false,
      "rstrip": false,
      "normalized": false,
      "special": true
    },
    {
      "id": 53,
      "content": "<unused47>",
      "single_word": false,
      "lstrip": false,
      "rstrip": false,
      "normalized": false,
      "special": true
    },
    {
      "id": 54,
      "content": "<unused48>",
      "single_word": false,
      "lstrip": false,
      "rstrip": false,
      "normalized": false,
      "special": true
    },
    {
      "id": 55,
      "content": "<unused49>",
      "single_word": false,
      "lstrip": false,
      "rstrip": false,
      "normalized": false,
      "special": true
    },
    {
      "id": 56,
      "content": "<unused50>",
      "single_word": false,
      "lstrip": false,
      "rstrip": false,
      "normalized": false,
      "special": true
    },
    {
      "id": 57,
      "content": "<unused51>",
      "single_word": false,
      "lstrip": false,
      "rstrip": false,
      "normalized": false,
      "special": true
    },
    {
      "id": 58,
      "content": "<unused52>",
      "single_word": false,
      "lstrip": false,
      "rstrip": false,
      "normalized": false,
      "special": true
    },
    {
      "id": 59,
      "content": "<unused53>",
      "single_word": false,
      "lstrip": false,
      "rstrip": false,
      "normalized": false,
      "special": true
    },
    {
      "id": 60,
      "content": "<unused54>",
      "single_word": false,
      "lstrip": false,
      "rstrip": false,
      "normalized": false,
      "special": true
    },
    {
      "id": 61,
      "content": "<unused55>",
      "single_word": false,
      "lstrip": false,
      "rstrip": false,
      "normalized": false,
      "special": true
    },
    {
      "id": 62,
      "content": "<unused56>",
      "single_word": false,
      "lstrip": false,
      "rstrip": false,
      "normalized": false,
      "special": true
    },
    {
      "id": 63,
      "content": "<unused57>",
      "single_word": false,
      "lstrip": false,
      "rstrip": false,
      "normalized": false,
      "special": true
    },
    {
      "id": 64,
      "content": "<unused58>",
      "single_word": false,
      "lstrip": false,
      "rstrip": false,
      "normalized": false,
      "special": true
    },
    {
      "id": 65,
      "content": "<unused59>",
      "single_word": false,
      "lstrip": false,
      "rstrip": false,
      "normalized": false,
      "special": true
    },
    {
      "id": 66,
      "content": "<unused60>",
      "single_word": false,
      "lstrip": false,
      "rstrip": false,
      "normalized": false,
      "special": true
    },
    {
      "id": 67,
      "content": "<unused61>",
      "single_word": false,
      "lstrip": false,
      "rstrip": false,
      "normalized": false,
      "special": true
    },
    {
      "id": 68,
      "content": "<unused62>",
      "single_word": false,
      "lstrip": false,
      "rstrip": false,
      "normalized": false,
      "special": true
    },
    {
      "id": 69,
      "content": "<unused63>",
      "single_word": false,
      "lstrip": false,
      "rstrip": false,
      "normalized": false,
      "special": true
    },
    {
      "id": 70,
      "content": "<unused64>",
      "single_word": false,
      "lstrip": false,
      "rstrip": false,
      "normalized": false,
      "special": true
    },
    {
      "id": 71,
      "content": "<unused65>",
      "single_word": false,
      "lstrip": false,
      "rstrip": false,
      "normalized": false,
      "special": true
    },
    {
      "id": 72,
      "content": "<unused66>",
      "single_word": false,
      "lstrip": false,
      "rstrip": false,
      "normalized": false,
      "special": true
    },
    {
      "id": 73,
      "content": "<unused67>",
      "single_word": false,
      "lstrip": false,
      "rstrip": false,
      "normalized": false,
      "special": true
    },
    {
      "id": 74,
      "content": "<unused68>",
      "single_word": false,
      "lstrip": false,
      "rstrip": false,
      "normalized": false,
      "special": true
    },
    {
      "id": 75,
      "content": "<unused69>",
      "single_word": false,
      "lstrip": false,
      "rstrip": false,
      "normalized": false,
      "special": true
    },
    {
      "id": 76,
      "content": "<unused70>",
      "single_word": false,
      "lstrip": false,
      "rstrip": false,
      "normalized": false,
      "special": true
    },
    {
      "id": 77,
      "content": "<unused71>",
      "single_word": false,
      "lstrip": false,
      "rstrip": false,
      "normalized": false,
      "special": true
    },
    {
      "id": 78,
      "content": "<unused72>",
      "single_word": false,
      "lstrip": false,
      "rstrip": false,
      "normalized": false,
      "special": true
    },
    {
      "id": 79,
      "content": "<unused73>",
      "single_word": false,
      "lstrip": false,
      "rstrip": false,
      "normalized": false,
      "special": true
    },
    {
      "id": 80,
      "content": "<unused74>",
      "single_word": false,
      "lstrip": false,
      "rstrip": false,
      "normalized": false,
      "special": true
    },
    {
      "id": 81,
      "content": "<unused75>",
      "single_word": false,
      "lstrip": false,
      "rstrip": false,
      "normalized": false,
      "special": true
    },
    {
      "id": 82,
      "content": "<unused76>",
      "single_word": false,
      "lstrip": false,
      "rstrip": false,
      "normalized": false,
      "special": true
    },
    {
      "id": 83,
      "content": "<unused77>",
      "single_word": false,
      "lstrip": false,
      "rstrip": false,
      "normalized": false,
      "special": true
    },
    {
      "id": 84,
      "content": "<unused78>",
      "single_word": false,
      "lstrip": false,
      "rstrip": false,
      "normalized": false,
      "special": true
    },
    {
      "id": 85,
      "content": "<unused79>",
      "single_word": false,
      "lstrip": false,
      "rstrip": false,
      "normalized": false,
      "special": true
    },
    {
      "id": 86,
      "content": "<unused80>",
      "single_word": false,
      "lstrip": false,
      "rstrip": false,
      "normalized": false,
      "special": true
    },
    {
      "id": 87,
      "content": "<unused81>",
      "single_word": false,
      "lstrip": false,
      "rstrip": false,
      "normalized": false,
      "special": true
    },
    {
      "id": 88,
      "content": "<unused82>",
      "single_word": false,
      "lstrip": false,
      "rstrip": false,
      "normalized": false,
      "special": true
    },
    {
      "id": 89,
      "content": "<unused83>",
      "single_word": false,
      "lstrip": false,
      "rstrip": false,
      "normalized": false,
      "special": true
    },
    {
      "id": 90,
      "content": "<unused84>",
      "single_word": false,
      "lstrip": false,
      "rstrip": false,
      "normalized": false,
      "special": true
    },
    {
      "id": 91,
      "content": "<unused85>",
      "single_word": false,
      "lstrip": false,
      "rstrip": false,
      "normalized": false,
      "special": true
    },
    {
      "id": 92,
      "content": "<unused86>",
      "single_word": false,
      "lstrip": false,
      "rstrip": false,
      "normalized": false,
      "special": true
    },
    {
      "id": 93,
      "content": "<unused87>",
      "single_word": false,
      "lstrip": false,
      "rstrip": false,
      "normalized": false,
      "special": true
    },
    {
      "id": 94,
      "content": "<unused88>",
      "single_word": false,
      "lstrip": false,
      "rstrip": false,
      "normalized": false,
      "special": true
    },
    {
      "id": 95,
      "content": "<unused89>",
      "single_word": false,
      "lstrip": false,
      "rstrip": false,
      "normalized": false,
      "special": true
    },
    {
      "id": 96,
      "content": "<unused90>",
      "single_word": false,
      "lstrip": false,
      "rstrip": false,
      "normalized": false,
      "special": true
    },
    {
      "id": 97,
      "content": "<unused91>",
      "single_word": false,
      "lstrip": false,
      "rstrip": false,
      "normalized": false,
      "special": true
    },
    {
      "id": 98,
      "content": "<unused92>",
      "single_word": false,
      "lstrip": false,
      "rstrip": false,
      "normalized": false,
      "special": true
    },
    {
      "id": 99,
      "content": "<unused93>",
      "single_word": false,
      "lstrip": false,
      "rstrip": false,
      "normalized": false,
      "special": true
    },
    {
      "id": 100,
      "content": "<unused94>",
      "single_word": false,
      "lstrip": false,
      "rstrip": false,
      "normalized": false,
      "special": true
    },
    {
      "id": 101,
      "content": "<unused95>",
      "single_word": false,
      "lstrip": false,
      "rstrip": false,
      "normalized": false,
      "special": true
    },
    {
      "id": 102,
      "content": "<unused96>",
      "single_word": false,
      "lstrip": false,
      "rstrip": false,
      "normalized": false,
      "special": true
    },
    {
      "id": 103,
      "content": "<unused97>",
      "single_word": false,
      "lstrip": false,
      "rstrip": false,
      "normalized": false,
      "special": true
    },
    {
      "id": 104,
      "content": "<unused98>",
      "single_word": false,
      "lstrip": false,
      "rstrip": false,
      "normalized": false,
      "special": true
    },
    {
      "id": 105,
      "content": "<start_of_turn>",
      "single_word": false,
      "lstrip": false,
      "rstrip": false,
      "normalized": false,
      "special": true
    },
    {
      "id": 106,
      "content": "<end_of_turn>",
      "single_word": false,
      "lstrip": false,
      "rstrip": false,
      "normalized": false,
      "special": true
    },
    {
      "id": 110,
      "content": "<table>",
      "single_word": false,
      "lstrip": false,
      "rstrip": false,
      "normalized": false,
      "special": true
    },
    {
      "id": 111,
      "content": "<caption>",
      "single_word": false,
      "lstrip": false,
      "rstrip": false,
      "normalized": false,
      "special": true
    },
    {
      "id": 112,
      "content": "<thead>",
      "single_word": false,
      "lstrip": false,
      "rstrip": false,
      "normalized": false,
      "special": true
    },
    {
      "id": 113,
      "content": "<tbody>",
      "single_word": false,
      "lstrip": false,
      "rstrip": false,
      "normalized": false,
      "special": true
    },
    {
      "id": 114,
      "content": "<tfoot>",
      "single_word": false,
      "lstrip": false,
      "rstrip": false,
      "normalized": false,
      "special": true
    },
    {
      "id": 115,
      "content": "<tr>",
      "single_word": false,
      "lstrip": false,
      "rstrip": false,
      "normalized": false,
      "special": true
    },
    {
      "id": 116,
      "content": "<th>",
      "single_word": false,
      "lstrip": false,
      "rstrip": false,
      "normalized": false,
      "special": true
    },
    {
      "id": 117,
      "content": "<td>",
      "single_word": false,
      "lstrip": false,
      "rstrip": false,
      "normalized": false,
      "special": true
    },
    {
      "id": 118,
      "content": "</table>",
      "single_word": false,
      "lstrip": false,
      "rstrip": false,
      "normalized": false,
      "special": true
    },
    {
      "id": 119,
      "content": "</caption>",
      "single_word": false,
      "lstrip": false,
      "rstrip": false,
      "normalized": false,
      "special": true
    },
    {
      "id": 120,
      "content": "</thead>",
      "single_word": false,
      "lstrip": false,
      "rstrip": false,
      "normalized": false,
      "special": true
    },
    {
      "id": 121,
      "content": "</tbody>",
      "single_word": false,
      "lstrip": false,
      "rstrip": false,
      "normalized": false,
      "special": true
    },
    {
      "id": 122,
      "content": "</tfoot>",
      "single_word": false,
      "lstrip": false,
      "rstrip": false,
      "normalized": false,
      "special": true
    },
    {
      "id": 123,
      "content": "</tr>",
      "single_word": false,
      "lstrip": false,
      "rstrip": false,
      "normalized": false,
      "special": true
    },
    {
      "id": 124,
      "content": "</th>",
      "single_word": false,
      "lstrip": false,
      "rstrip": false,
      "normalized": false,
      "special": true
    },
    {
      "id": 125,
      "content": "</td>",
      "single_word": false,
      "lstrip": false,
      "rstrip": false,
      "normalized": false,
      "special": true
    },
    {
      "id": 126,
      "content": "<h1>",
      "single_word": false,
      "lstrip": false,
      "rstrip": false,
      "normalized": false,
      "special": true
    },
    {
      "id": 127,
      "content": "<h2>",
      "single_word": false,
      "lstrip": false,
      "rstrip": false,
      "normalized": false,
      "special": true
    },
    {
      "id": 128,
      "content": "<h3>",
      "single_word": false,
      "lstrip": false,
      "rstrip": false,
      "normalized": false,
      "special": true
    },
    {
      "id": 129,
      "content": "<h4>",
      "single_word": false,
      "lstrip": false,
      "rstrip": false,
      "normalized": false,
      "special": true
    },
    {
      "id": 130,
      "content": "<h5>",
      "single_word": false,
      "lstrip": false,
      "rstrip": false,
      "normalized": false,
      "special": true
    },
    {
      "id": 131,
      "content": "<h6>",
      "single_word": false,
      "lstrip": false,
      "rstrip": false,
      "normalized": false,
      "special": true
    },
    {
      "id": 132,
      "content": "<blockquote>",
      "single_word": false,
      "lstrip": false,
      "rstrip": false,
      "normalized": false,
      "special": true
    },
    {
      "id": 133,
      "content": "</h1>",
      "single_word": false,
      "lstrip": false,
      "rstrip": false,
      "normalized": false,
      "special": true
    },
    {
      "id": 134,
      "content": "</h2>",
      "single_word": false,
      "lstrip": false,
      "rstrip": false,
      "normalized": false,
      "special": true
    },
    {
      "id": 135,
      "content": "</h3>",
      "single_word": false,
      "lstrip": false,
      "rstrip": false,
      "normalized": false,
      "special": true
    },
    {
      "id": 136,
      "content": "</h4>",
      "single_word": false,
      "lstrip": false,
      "rstrip": false,
      "normalized": false,
      "special": true
    },
    {
      "id": 137,
      "content": "</h5>",
      "single_word": false,
      "lstrip": false,
      "rstrip": false,
      "normalized": false,
      "special": true
    },
    {
      "id": 138,
      "content": "</h6>",
      "single_word": false,
      "lstrip": false,
      "rstrip": false,
      "normalized": false,
      "special": true
    },
    {
      "id": 139,
      "content": "</blockquote>",
      "single_word": false,
      "lstrip": false,
      "rstrip": false,
      "normalized": false,
      "special": true
    },
    {
      "id": 140,
      "content": "<strong>",
      "single_word": false,
      "lstrip": false,
      "rstrip": false,
      "normalized": false,
      "special": true
    },
    {
      "id": 141,
      "content": "<em>",
      "single_word": false,
      "lstrip": false,
      "rstrip": false,
      "normalized": false,
      "special": true
    },
    {
      "id": 142,
      "content": "<b>",
      "single_word": false,
      "lstrip": false,
      "rstrip": false,
      "normalized": false,
      "special": true
    },
    {
      "id": 143,
      "content": "<i>",
      "single_word": false,
      "lstrip": false,
      "rstrip": false,
      "normalized": false,
      "special": true
    },
    {
      "id": 144,
      "content": "<u>",
      "single_word": false,
      "lstrip": false,
      "rstrip": false,
      "normalized": false,
      "special": true
    },
    {
      "id": 145,
      "content": "<s>",
      "single_word": false,
      "lstrip": false,
      "rstrip": false,
      "normalized": false,
      "special": true
    },
    {
      "id": 146,
      "content": "<sub>",
      "single_word": false,
      "lstrip": false,
      "rstrip": false,
      "normalized": false,
      "special": true
    },
    {
      "id": 147,
      "content": "<sup>",
      "single_word": false,
      "lstrip": false,
      "rstrip": false,
      "normalized": false,
      "special": true
    },
    {
      "id": 148,
      "content": "<code>",
      "single_word": false,
      "lstrip": false,
      "rstrip": false,
      "normalized": false,
      "special": true
    },
    {
      "id": 149,
      "content": "</strong>",
      "single_word": false,
      "lstrip": false,
      "rstrip": false,
      "normalized": false,
      "special": true
    },
    {
      "id": 150,
      "content": "</em>",
      "single_word": false,
      "lstrip": false,
      "rstrip": false,
      "normalized": false,
      "special": true
    },
    {
      "id": 151,
      "content": "</b>",
      "single_word": false,
      "lstrip": false,
      "rstrip": false,
      "normalized": false,
      "special": true
    },
    {
      "id": 152,
      "content": "</i>",
      "single_word": false,
      "lstrip": false,
      "rstrip": false,
      "normalized": false,
      "special": true
    },
    {
      "id": 153,
      "content": "</u>",
      "single_word": false,
      "lstrip": false,
      "rstrip": false,
      "normalized": false,
      "special": true
    },
    {
      "id": 154,
      "content": "</s>",
      "single_word": false,
      "lstrip": false,
      "rstrip": false,
      "normalized": false,
      "special": true
    },
    {
      "id": 155,
      "content": "</sub>",
      "single_word": false,
      "lstrip": false,
      "rstrip": false,
      "normalized": false,
      "special": true
    },
    {
      "id": 156,
      "content": "</sup>",
      "single_word": false,
      "lstrip": false,
      "rstrip": false,
      "normalized": false,
      "special": true
    },
    {
      "id": 157,
      "content": "</code>",
      "single_word": false,
      "lstrip": false,
      "rstrip": false,
      "normalized": false,
      "special": true
    },
    {
      "id": 158,
      "content": "<a>",
      "single_word": false,
      "lstrip": false,
      "rstrip": false,
      "normalized": false,
      "special": true
    },
    {
      "id": 159,
      "content": "<html>",
      "single_word": false,
      "lstrip": false,
      "rstrip": false,
      "normalized": false,
      "special": true
    },
    {
      "id": 160,
      "content": "<body>",
      "single_word": false,
      "lstrip": false,
      "rstrip": false,
      "normalized": false,
      "special": true
    },
    {
      "id": 161,
      "content": "<img>",
      "single_word": false,
      "lstrip": false,
      "rstrip": false,
      "normalized": false,
      "special": true
    },
    {
      "id": 162,
      "content": "<span>",
      "single_word": false,
      "lstrip": false,
      "rstrip": false,
      "normalized": false,
      "special": true
    },
    {
      "id": 163,
      "content": "<bbox>",
      "single_word": false,
      "lstrip": false,
      "rstrip": false,
      "normalized": false,
      "special": true
    },
    {
      "id": 164,
      "content": "<ul>",
      "single_word": false,
      "lstrip": false,
      "rstrip": false,
      "normalized": false,
      "special": true
    },
    {
      "id": 165,
      "content": "<li>",
      "single_word": false,
      "lstrip": false,
      "rstrip": false,
      "normalized": false,
      "special": true
    },
    {
      "id": 166,
      "content": "<div>",
      "single_word": false,
      "lstrip": false,
      "rstrip": false,
      "normalized": false,
      "special": true
    },
    {
      "id": 167,
      "content": "<iframe>",
      "single_word": false,
      "lstrip": false,
      "rstrip": false,
      "normalized": false,
      "special": true
    },
    {
      "id": 168,
      "content": "<footer>",
      "single_word": false,
      "lstrip": false,
      "rstrip": false,
      "normalized": false,
      "special": true
    },
    {
      "id": 169,
      "content": "</a>",
      "single_word": false,
      "lstrip": false,
      "rstrip": false,
      "normalized": false,
      "special": true
    },
    {
      "id": 170,
      "content": "</html>",
      "single_word": false,
      "lstrip": false,
      "rstrip": false,
      "normalized": false,
      "special": true
    },
    {
      "id": 171,
      "content": "</body>",
      "single_word": false,
      "lstrip": false,
      "rstrip": false,
      "normalized": false,
      "special": true
    },
    {
      "id": 172,
      "content": "</img>",
      "single_word": false,
      "lstrip": false,
      "rstrip": false,
      "normalized": false,
      "special": true
    },
    {
      "id": 173,
      "content": "</span>",
      "single_word": false,
      "lstrip": false,
      "rstrip": false,
      "normalized": false,
      "special": true
    },
    {
      "id": 174,
      "content": "</bbox>",
      "single_word": false,
      "lstrip": false,
      "rstrip": false,
      "normalized": false,
      "special": true
    },
    {
      "id": 175,
      "content": "</ul>",
      "single_word": false,
      "lstrip": false,
      "rstrip": false,
      "normalized": false,
      "special": true
    },
    {
      "id": 176,
      "content": "</li>",
      "single_word": false,
      "lstrip": false,
      "rstrip": false,
      "normalized": false,
      "special": true
    },
    {
      "id": 177,
      "content": "</div>",
      "single_word": false,
      "lstrip": false,
      "rstrip": false,
      "normalized": false,
      "special": true
    },
    {
      "id": 178,
      "content": "</iframe>",
      "single_word": false,
      "lstrip": false,
      "rstrip": false,
      "normalized": false,
      "special": true
    },
    {
      "id": 179,
      "content": "</footer>",
      "single_word": false,
      "lstrip": false,
      "rstrip": false,
      "normalized": false,
      "special": true
    },
    {
      "id": 85080,
      "content": "[]",
      "single_word": false,
      "lstrip": false,
      "rstrip": false,
      "normalized": false,
      "special": true
    },
    {
      "id": 90262,
      "content": "<>",
      "single_word": false,
      "lstrip": false,
      "rstrip": false,
      "normalized": false,
      "special": true
    },
    {
      "id": 112736,
      "content": "<?>",
      "single_word": false,
      "lstrip": false,
      "rstrip": false,
      "normalized": false,
      "special": true
    },
    {
      "id": 119887,
      "content": "[,]",
      "single_word": false,
      "lstrip": false,
      "rstrip": false,
      "normalized": false,
      "special": true
    },
    {
      "id": 121035,
      "content": "<=>",
      "single_word": false,
      "lstrip": false,
      "rstrip": false,
      "normalized": false,
      "special": true
    },
    {
      "id": 121602,
      "content": "[-]",
      "single_word": false,
      "lstrip": false,
      "rstrip": false,
      "normalized": false,
      "special": true
    },
    {
      "id": 122099,
      "content": "[:]",
      "single_word": false,
      "lstrip": false,
      "rstrip": false,
      "normalized": false,
      "special": true
    },
    {
      "id": 124583,
      "content": "[*]",
      "single_word": false,
      "lstrip": false,
      "rstrip": false,
      "normalized": false,
      "special": true
    },
    {
      "id": 130596,
      "content": "[…]",
      "single_word": false,
      "lstrip": false,
      "rstrip": false,
      "normalized": false,
      "special": true
    },
    {
      "id": 130999,
      "content": "<start_of_image>",
      "single_word": false,
      "lstrip": false,
      "rstrip": false,
      "normalized": false,
      "special": true
    },
    {
      "id": 131000,
      "content": "<end_of_image>",
      "single_word": false,
      "lstrip": false,
      "rstrip": false,
      "normalized": false,
      "special": true
    },
    {
      "id": 131001,
      "content": "<unused99>",
      "single_word": false,
      "lstrip": false,
      "rstrip": false,
      "normalized": false,
      "special": true
    },
    {
      "id": 131002,
      "content": "<unused100>",
      "single_word": false,
      "lstrip": false,
      "rstrip": false,
      "normalized": false,
      "special": true
    },
    {
      "id": 131003,
      "content": "<unused101>",
      "single_word": false,
      "lstrip": false,
      "rstrip": false,
      "normalized": false,
      "special": true
    },
    {
      "id": 131004,
      "content": "<unused102>",
      "single_word": false,
      "lstrip": false,
      "rstrip": false,
      "normalized": false,
      "special": true
    },
    {
      "id": 131005,
      "content": "<unused103>",
      "single_word": false,
      "lstrip": false,
      "rstrip": false,
      "normalized": false,
      "special": true
    },
    {
      "id": 131006,
      "content": "<unused104>",
      "single_word": false,
      "lstrip": false,
      "rstrip": false,
      "normalized": false,
      "special": true
    },
    {
      "id": 131007,
      "content": "<unused105>",
      "single_word": false,
      "lstrip": false,
      "rstrip": false,
      "normalized": false,
      "special": true
    },
    {
      "id": 131008,
      "content": "<unused106>",
      "single_word": false,
      "lstrip": false,
      "rstrip": false,
      "normalized": false,
      "special": true
    },
    {
      "id": 131009,
      "content": "<unused107>",
      "single_word": false,
      "lstrip": false,
      "rstrip": false,
      "normalized": false,
      "special": true
    },
    {
      "id": 131010,
      "content": "<unused108>",
      "single_word": false,
      "lstrip": false,
      "rstrip": false,
      "normalized": false,
      "special": true
    },
    {
      "id": 131011,
      "content": "<unused109>",
      "single_word": false,
      "lstrip": false,
      "rstrip": false,
      "normalized": false,
      "special": true
    },
    {
      "id": 131012,
      "content": "<unused110>",
      "single_word": false,
      "lstrip": false,
      "rstrip": false,
      "normalized": false,
      "special": true
    },
    {
      "id": 131013,
      "content": "<unused111>",
      "single_word": false,
      "lstrip": false,
      "rstrip": false,
      "normalized": false,
      "special": true
    },
    {
      "id": 131014,
      "content": "<unused112>",
      "single_word": false,
      "lstrip": false,
      "rstrip": false,
      "normalized": false,
      "special": true
    },
    {
      "id": 131015,
      "content": "<unused113>",
      "single_word": false,
      "lstrip": false,
      "rstrip": false,
      "normalized": false,
      "special": true
    },
    {
      "id": 131016,
      "content": "<unused114>",
      "single_word": false,
      "lstrip": false,
      "rstrip": false,
      "normalized": false,
      "special": true
    },
    {
      "id": 131017,
      "content": "<unused115>",
      "single_word": false,
      "lstrip": false,
      "rstrip": false,
      "normalized": false,
      "special": true
    },
    {
      "id": 131018,
      "content": "<unused116>",
      "single_word": false,
      "lstrip": false,
      "rstrip": false,
      "normalized": false,
      "special": true
    },
    {
      "id": 131019,
      "content": "<unused117>",
      "single_word": false,
      "lstrip": false,
      "rstrip": false,
      "normalized": false,
      "special": true
    },
    {
      "id": 131020,
      "content": "<unused118>",
      "single_word": false,
      "lstrip": false,
      "rstrip": false,
      "normalized": false,
      "special": true
    },
    {
      "id": 131021,
      "content": "<unused119>",
      "single_word": false,
      "lstrip": false,
      "rstrip": false,
      "normalized": false,
      "special": true
    },
    {
      "id": 131022,
      "content": "<unused120>",
      "single_word": false,
      "lstrip": false,
      "rstrip": false,
      "normalized": false,
      "special": true
    },
    {
      "id": 131023,
      "content": "<unused121>",
      "single_word": false,
      "lstrip": false,
      "rstrip": false,
      "normalized": false,
      "special": true
    },
    {
      "id": 131024,
      "content": "<unused122>",
      "single_word": false,
      "lstrip": false,
      "rstrip": false,
      "normalized": false,
      "special": true
    },
    {
      "id": 131025,
      "content": "<unused123>",
      "single_word": false,
      "lstrip": false,
      "rstrip": false,
      "normalized": false,
      "special": true
    },
    {
      "id": 131026,
      "content": "<unused124>",
      "single_word": false,
      "lstrip": false,
      "rstrip": false,
      "normalized": false,
      "special": true
    },
    {
      "id": 131027,
      "content": "<unused125>",
      "single_word": false,
      "lstrip": false,
      "rstrip": false,
      "normalized": false,
      "special": true
    },
    {
      "id": 131028,
      "content": "<unused126>",
      "single_word": false,
      "lstrip": false,
      "rstrip": false,
      "normalized": false,
      "special": true
    },
    {
      "id": 131029,
      "content": "<unused127>",
      "single_word": false,
      "lstrip": false,
      "rstrip": false,
      "normalized": false,
      "special": true
    },
    {
      "id": 131030,
      "content": "<unused128>",
      "single_word": false,
      "lstrip": false,
      "rstrip": false,
      "normalized": false,
      "special": true
    },
    {
      "id": 131031,
      "content": "<unused129>",
      "single_word": false,
      "lstrip": false,
      "rstrip": false,
      "normalized": false,
      "special": true
    },
    {
      "id": 131032,
      "content": "<unused130>",
      "single_word": false,
      "lstrip": false,
      "rstrip": false,
      "normalized": false,
      "special": true
    },
    {
      "id": 131033,
      "content": "<unused131>",
      "single_word": false,
      "lstrip": false,
      "rstrip": false,
      "normalized": false,
      "special": true
    },
    {
      "id": 131034,
      "content": "<unused132>",
      "single_word": false,
      "lstrip": false,
      "rstrip": false,
      "normalized": false,
      "special": true
    },
    {
      "id": 131035,
      "content": "<unused133>",
      "single_word": false,
      "lstrip": false,
      "rstrip": false,
      "normalized": false,
      "special": true
    },
    {
      "id": 131036,
      "content": "<unused134>",
      "single_word": false,
      "lstrip": false,
      "rstrip": false,
      "normalized": false,
      "special": true
    },
    {
      "id": 131037,
      "content": "<unused135>",
      "single_word": false,
      "lstrip": false,
      "rstrip": false,
      "normalized": false,
      "special": true
    },
    {
      "id": 131038,
      "content": "<unused136>",
      "single_word": false,
      "lstrip": false,
      "rstrip": false,
      "normalized": false,
      "special": true
    },
    {
      "id": 131039,
      "content": "<unused137>",
      "single_word": false,
      "lstrip": false,
      "rstrip": false,
      "normalized": false,
      "special": true
    },
    {
      "id": 131040,
      "content": "<unused138>",
      "single_word": false,
      "lstrip": false,
      "rstrip": false,
      "normalized": false,
      "special": true
    },
    {
      "id": 131041,
      "content": "<unused139>",
      "single_word": false,
      "lstrip": false,
      "rstrip": false,
      "normalized": false,
      "special": true
    },
    {
      "id": 131042,
      "content": "<unused140>",
      "single_word": false,
      "lstrip": false,
      "rstrip": false,
      "normalized": false,
      "special": true
    },
    {
      "id": 131043,
      "content": "<unused141>",
      "single_word": false,
      "lstrip": false,
      "rstrip": false,
      "normalized": false,
      "special": true
    },
    {
      "id": 131044,
      "content": "<unused142>",
      "single_word": false,
      "lstrip": false,
      "rstrip": false,
      "normalized": false,
      "special": true
    },
    {
      "id": 131045,
      "content": "<unused143>",
      "single_word": false,
      "lstrip": false,
      "rstrip": false,
      "normalized": false,
      "special": true
    },
    {
      "id": 131046,
      "content": "<unused144>",
      "single_word": false,
      "lstrip": false,
      "rstrip": false,
      "normalized": false,
      "special": true
    },
    {
      "id": 131047,
      "content": "<unused145>",
      "single_word": false,
      "lstrip": false,
      "rstrip": false,
      "normalized": false,
      "special": true
    },
    {
      "id": 131048,
      "content": "<unused146>",
      "single_word": false,
      "lstrip": false,
      "rstrip": false,
      "normalized": false,
      "special": true
    },
    {
      "id": 131049,
      "content": "<unused147>",
      "single_word": false,
      "lstrip": false,
      "rstrip": false,
      "normalized": false,
      "special": true
    },
    {
      "id": 131050,
      "content": "<unused148>",
      "single_word": false,
      "lstrip": false,
      "rstrip": false,
      "normalized": false,
      "special": true
    },
    {
      "id": 131051,
      "content": "<unused149>",
      "single_word": false,
      "lstrip": false,
      "rstrip": false,
      "normalized": false,
      "special": true
    },
    {
      "id": 131052,
      "content": "<unused150>",
      "single_word": false,
      "lstrip": false,
      "rstrip": false,
      "normalized": false,
      "special": true
    },
    {
      "id": 131053,
      "content": "<unused151>",
      "single_word": false,
      "lstrip": false,
      "rstrip": false,
      "normalized": false,
      "special": true
    },
    {
      "id": 131054,
      "content": "<unused152>",
      "single_word": false,
      "lstrip": false,
      "rstrip": false,
      "normalized": false,
      "special": true
    },
    {
      "id": 131055,
      "content": "<unused153>",
      "single_word": false,
      "lstrip": false,
      "rstrip": false,
      "normalized": false,
      "special": true
    },
    {
      "id": 131056,
      "content": "<unused154>",
      "single_word": false,
      "lstrip": false,
      "rstrip": false,
      "normalized": false,
      "special": true
    },
    {
      "id": 131057,
      "content": "<unused155>",
      "single_word": false,
      "lstrip": false,
      "rstrip": false,
      "normalized": false,
      "special": true
    },
    {
      "id": 131058,
      "content": "<unused156>",
      "single_word": false,
      "lstrip": false,
      "rstrip": false,
      "normalized": false,
      "special": true
    },
    {
      "id": 131059,
      "content": "<unused157>",
      "single_word": false,
      "lstrip": false,
      "rstrip": false,
      "normalized": false,
      "special": true
    },
    {
      "id": 131060,
      "content": "<unused158>",
      "single_word": false,
      "lstrip": false,
      "rstrip": false,
      "normalized": false,
      "special": true
    },
    {
      "id": 131061,
      "content": "<unused159>",
      "single_word": false,
      "lstrip": false,
      "rstrip": false,
      "normalized": false,
      "special": true
    },
    {
      "id": 131062,
      "content": "<unused160>",
      "single_word": false,
      "lstrip": false,
      "rstrip": false,
      "normalized": false,
      "special": true
    },
    {
      "id": 131063,
      "content": "<unused161>",
      "single_word": false,
      "lstrip": false,
      "rstrip": false,
      "normalized": false,
      "special": true
    },
    {
      "id": 131064,
      "content": "<unused162>",
      "single_word": false,
      "lstrip": false,
      "rstrip": false,
      "normalized": false,
      "special": true
    },
    {
      "id": 131065,
      "content": "<unused163>",
      "single_word": false,
      "lstrip": false,
      "rstrip": false,
      "normalized": false,
      "special": true
    },
    {
      "id": 131066,
      "content": "<unused164>",
      "single_word": false,
      "lstrip": false,
      "rstrip": false,
      "normalized": false,
      "special": true
    },
    {
      "id": 131067,
      "content": "<unused165>",
      "single_word": false,
      "lstrip": false,
      "rstrip": false,
      "normalized": false,
      "special": true
    },
    {
      "id": 131068,
      "content": "<unused166>",
      "single_word": false,
      "lstrip": false,
      "rstrip": false,
      "normalized": false,
      "special": true
    },
    {
      "id": 131069,
      "content": "<unused167>",
      "single_word": false,
      "lstrip": false,
      "rstrip": false,
      "normalized": false,
      "special": true
    },
    {
      "id": 131070,
      "content": "<unused168>",
      "single_word": false,
      "lstrip": false,
      "rstrip": false,
      "normalized": false,
      "special": true
    },
    {
      "id": 131071,
      "content": "<unused169>",
      "single_word": false,
      "lstrip": false,
      "rstrip": false,
      "normalized": false,
      "special": true
    },
    {
      "id": 131072,
      "content": "<image_soft_token>",
      "single_word": false,
      "lstrip": false,
      "rstrip": false,
      "normalized": false,
      "special": true
    }
  ],
  "normalizer": {
    "type": "Replace",
    "pattern": {
      "String": " "
    },
    "content": "▁"
  },
  "pre_tokenizer": {
    "type": "Split",
    "pattern": {
      "String": " "
    },
    "behavior": "MergedWithPrevious",
    "invert": false
  },
  "post_processor": {
    "type": "TemplateProcessing",
    "single": [
      {
        "Sequence": {
          "id": "A",
          "type_id": 0
        }
      }
    ],
    "pair": [
      {
        "Sequence": {
          "id": "A",
          "type_id": 0
        }
      },
      {
        "Sequence": {
          "id": "B",
          "type_id": 1
        }
      }
    ],
    "special_tokens": {
      "<bos>": {
        "id": "<bos>",
        "ids": [
          2
        ],
        "tokens": [
          "<bos>"
        ]
      },
      "<eos>": {
        "id": "<eos>",
        "ids": [
          1
        ],
        "tokens": [
          "<eos>"
        ]
      }
    }
  },
  "decoder": {
    "type": "Sequence",
    "decoders": [
      {
        "type": "Replace",
        "pattern": {
          "String": "▁"
        },
        "content": " "
      },
      {
        "type": "ByteFallback"
      },
      {
        "type": "Fuse"
      }
    ]
  },
  "model": {
    "type": "BPE",
    "dropout": null,
    "unk_token": "<unk>",
    "continuing_subword_prefix": null,
    "end_of_word_suffix": null,
    "fuse_unk": true,
    "byte_fallback": true,
    "ignore_merges": false,
    "vocab": {
      "<pad>": 0,
      "<eos>": 1,
      "<bos>": 2,
      "<unk>": 3,
      "<mask>": 4,
      "[multimodal]": 5,
      "<unused0>": 6,
      "<unused1>": 7,
      "<unused2>": 8,
      "<unused3>": 9,
      "<unused4>": 10,
      "<unused5>": 11,
      "<unused6>": 12,
      "<unused7>": 13,
      "<unused8>": 14,
      "<unused9>": 15,
      "<unused10>": 16,
      "<unused11>": 17,
      "<unused12>": 18,
      "<unused13>": 19,
      "<unused14>": 20,
      "<unused15>": 21,
      "<unused16>": 22,
      "<unused17>": 23,
      "<unused18>": 24,
      "<unused19>": 25,
      "<unused20>": 26,
      "<unused21>": 27,
      "<unused22>": 28,
      "<unused23>": 29,
      "<unused24>": 30,
      "<unused25>": 31,
      "<unused26>": 32,
      "<unused27>": 33,
      "<unused28>": 34,
      "<unused29>": 35,
      "<unused30>": 36,
      "<unused31>": 37,
      "<unused32>": 38,
      "<unused33>": 39,
      "<unused34>": 40,
      "<unused35>": 41,
      "<unused36>": 42,
      "<unused37>": 43,
      "<unused38>": 44,
      "<unused39>": 45,
      "<unused40>": 46,
      "<unused41>": 47,
      "<unused42>": 48,
      "<unused43>": 49,
      "<unused44>": 50,
      "<unused45>": 51,
      "<unused46>": 52,
      "<unused47>": 53,
      "<unused48>": 54,
      "<unused49>": 55,
      "<unused50>": 56,
      "<unused51>": 57,
      "<unused52>": 58,
      "<unused53>": 59,
      "<unused54>": 60,
      "<unused55>": 61,
      "<unused56>": 62,
      "<unused57>": 63,
      "<unused58>": 64,
      "<unused59>": 65,
      "<unused60>": 66,
      "<unused61>": 67,
      "<unused62>": 68,
      "<unused63>": 69,
      "<unused64>": 70,
      "<unused65>": 71,
      "<unused66>": 72,
      "<unused67>": 73,
      "<unused68>": 74,
      "<unused69>": 75,
      "<unused70>": 76,
      "<unused71>": 77,
      "<unused72>": 78,
      "<unused73>": 79,
      "<unused74>": 80,
      "<unused75>": 81,
      "<unused76>": 82,
      "<unused77>": 83,
      "<unused78>": 84,
      "<unused79>": 85,
      "<unused80>": 86,
      "<unused81>": 87,
      "<unused82>": 88,
      "<unused83>": 89,
      "<unused84>": 90,
      "<unused85>": 91,
      "<unused86>": 92,
      "<unused87>": 93,
      "<unused88>": 94,
      "<unused89>": 95,
      "<unused90>": 96,
      "<unused91>": 97,
      "<unused92>": 98,
      "<unused93>": 99,
      "<unused94>": 100,
      "<unused95>": 101,
      "<unused96>": 102,
      "<unused97>": 103,
      "<unused98>": 104,
      "<start_of_turn>": 105,
      "<end_of_turn>": 106,
      "\n": 107,
      "\n\n": 108,
      "▁▁": 109,
      "<table>": 110,
      "<caption>": 111,
      "<thead>": 112,
      "<tbody>": 113,
      "<tfoot>": 114,
      "<tr>": 115,
      "<th>": 116,
      "<td>": 117,
      "</table>": 118,
      "</caption>": 119,
      "</thead>": 120,
      "</tbody>": 121,
      "</tfoot>": 122,
      "</tr>": 123,
      "</th>": 124,
      "</td>": 125,
      "<h1>": 126,
      "<h2>": 127,
      "<h3>": 128,
      "<h4>": 129,
      "<h5>": 130,
      "<h6>": 131,
      "<blockquote>": 132,
      "</h1>": 133,
      "</h2>": 134,
      "</h3>": 135,
      "</h4>": 136,
      "</h5>": 137,
      "</h6>": 138,
      "</blockquote>": 139,
      "<strong>": 140,
      "<em>": 141,
      "<b>": 142,
      "<i>": 143,
      "<u>": 144,
      "<s>": 145,
      "<sub>": 146,
      "<sup>": 147,
      "<code>": 148,
      "</strong>": 149,
      "</em>": 150,
      "</b>": 151,
      "</i>": 152,
      "</u>": 153,
      "</s>": 154,
      "</sub>": 155,
      "</sup>": 156,
      "</code>": 157,
      "<a>": 158,
      "<html>": 159,
      "<body>": 160,
      "<img>": 161,
      "<span>": 162,
      "<bbox>": 163,
      "<ul>": 164,
      "<li>": 165,
      "<div>": 166,
      "<iframe>": 167,
      "<footer>": 168,
      "</a>": 169,
      "</html>": 170,
      "</body>": 171,
      "</img>": 172,
      "</span>": 173,
      "</bbox>": 174,
      "</ul>": 175,
      "</li>": 176,
      "</div>": 177,
      "</iframe>": 178,
      "</footer>": 179,
      "\t": 180,
      "\t\t": 181,
      "<0x00>": 182,
      "<0x01>": 183,
      "<0x02>": 184,
      "<0x03>": 185,
      "<0x04>": 186,
      "<0x05>": 187,
      "<0x06>": 188,
      "<0x07>": 189,
      "<0x08>": 190,
      "<0x09>": 191,
      "<0x0A>": 192,
      "<0x0B>": 193,
      "<0x0C>": 194,
      "<0x0D>": 195,
      "<0x0E>": 196,
      "<0x0F>": 197,
      "<0x10>": 198,
      "<0x11>": 199,
      "<0x12>": 200,
      "<0x13>": 201,
      "<0x14>": 202,
      "<0x15>": 203,
      "<0x16>": 204,
      "<0x17>": 205,
      "<0x18>": 206,
      "<0x19>": 207,
      "<0x1A>": 208,
      "<0x1B>": 209,
      "<0x1C>": 210,
      "<0x1D>": 211,
      "<0x1E>": 212,
      "<0x1F>": 213,
      "<0x20>": 214,
      "<0x21>": 215,
      "<0x22>": 216,
      "<0x23>": 217,
      "<0x24>": 218,
      "<0x25>": 219,
      "<0x26>": 220,
      "<0x27>": 221,
      "<0x28>": 222,
      "<0x29>": 223,
      "<0x2A>": 224,
      "<0x2B>": 225,
      "<0x2C>": 226,
      "<0x2D>": 227,
      "<0x2E>": 228,
      "<0x2F>": 229,
      "<0x30>": 230,
      "<0x31>": 231,
      "<0x32>": 232,
      "<0x33>": 233,
      "<0x34>": 234,
      "<0x35>": 235,
      "<0x36>": 236,
      "<0x37>": 237,
      "<0x38>": 238,
      "<0x39>": 239,
      "<0x3A>": 240,
      "<0x3B>": 241,
      "<0x3C>": 242,
      "<0x3D>": 243,
      "<0x3E>": 244,
      "<0x3F>": 245,
      "<0x40>": 246,
      "<0x41>": 247,
      "<0x42>": 248,
      "<0x43>": 249,
      "<0x44>": 250,
      "<0x45>": 251,
      "<0x46>": 252,
      "<0x47>": 253,
      "<0x48>": 254,
      "<0x49>": 255,
      "<0x4A>": 256,
      "<0x4B>": 257,
      "<0x4C>": 258,
      "<0x4D>": 259,
      "<0x4E>": 260,
      "<0x4F>": 261,
      "<0x50>": 262,
      "<0x51>": 263,
      "<0x52>": 264,
      "<0x53>": 265,
      "<0x54>": 266,
      "<0x55>": 267,
      "<0x56>": 268,
      "<0x57>": 269,
      "<0x58>": 270,
      "<0x59>": 271,
      "<0x5A>": 272,
      "<0x5B>": 273,
      "<0x5C>": 274,
      "<0x5D>": 275,
      "<0x5E>": 276,
      "<0x5F>": 277,
      "<0x60>": 278,
      "<0x61>": 279,
      "<0x62>": 280,
      "<0x63>": 281,
      "<0x64>": 282,
      "<0x65>": 283,
      "<0x66>": 284,
      "<0x67>": 285,
      "<0x68>": 286,
      "<0x69>": 287,
      "<0x6A>": 288,
      "<0x6B>": 289,
      "<0x6C>": 290,
      "<0x6D>": 291,
      "<0x6E>": 292,
      "<0x6F>": 293,
      "<0x70>": 294,
      "<0x71>": 295,
      "<0x72>": 296,
      "<0x73>": 297,
      "<0x74>": 298,
      "<0x75>": 299,
      "<0x76>": 300,
      "<0x77>": 301,
      "<0x78>": 302,
      "<0x79>": 303,
      "<0x7A>": 304,
      "<0x7B>": 305,
      "<0x7C>": 306,
      "<0x7D>": 307,
      "<0x7E>": 308,
      "<0x7F>": 309,
      "<0x80>": 310,
      "<0x81>": 311,
      "<0x82>": 312,
      "<0x83>": 313,
      "<0x84>": 314,
      "<0x85>": 315,
      "<0x86>": 316,
      "<0x87>": 317,
      "<0x88>": 318,
      "<0x89>": 319,
      "<0x8A>": 320,
      "<0x8B>": 321,
      "<0x8C>": 322,
      "<0x8D>": 323,
      "<0x8E>": 324,
      "<0x8F>": 325,
      "<0x90>": 326,
      "<0x91>": 327,
      "<0x92>": 328,
      "<0x93>": 329,
      "<0x94>": 330,
      "<0x95>": 331,
      "<0x96>": 332,
      "<0x97>": 333,
      "<0x98>": 334,
      "<0x99>": 335,
      "<0x9A>": 336,
      "<0x9B>": 337,
      "<0x9C>": 338,
      "<0x9D>": 339,
      "<0x9E>": 340,
      "<0x9F>": 341,
      "<0xA0>": 342,
      "<0xA1>": 343,
      "<0xA2>": 344,
      "<0xA3>": 345,
      "<0xA4>": 346,
      "<0xA5>": 347,
      "<0xA6>": 348,
      "<0xA7>": 349,
      "<0xA8>": 350,
      "<0xA9>": 351,
      "<0xAA>": 352,
      "<0xAB>": 353,
      "<0xAC>": 354,
      "<0xAD>": 355,
      "<0xAE>": 356,
      "<0xAF>": 357,
      "<0xB0>": 358,
      "<0xB1>": 359,
      "<0xB2>": 360,
      "<0xB3>": 361,
      "<0xB4>": 362,
      "<0xB5>": 363,
      "<0xB6>": 364,
      "<0xB7>": 365,
      "<0xB8>": 366,
      "<0xB9>": 367,
      "<0xBA>": 368,
      "<0xBB>": 369,
      "<0xBC>": 370,
      "<0xBD>": 371,
      "<0xBE>": 372,
      "<0xBF>": 373,
      "<0xC0>": 374,
      "<0xC1>": 375,
      "<0xC2>": 376,
      "<0xC3>": 377,
      "<0xC4>": 378,
      "<0xC5>": 379,
      "<0xC6>": 380,
      "<0xC7>": 381,
      "<0xC8>": 382,
      "<0xC9>": 383,
      "<0xCA>": 384,
      "<0xCB>": 385,
      "<0xCC>": 386,
      "<0xCD>": 387,
      "<0xCE>": 388,
      "<0xCF>": 389,
      "<0xD0>": 390,
      "<0xD1>": 391,
      "<0xD2>": 392,
      "<0xD3>": 393,
      "<0xD4>": 394,
      "<0xD5>": 395,
      "<0xD6>": 396,
      "<0xD7>": 397,
      "<0xD8>": 398,
      "<0xD9>": 399,
      "<0xDA>": 400,
      "<0xDB>": 401,
      "<0xDC>": 402,
      "<0xDD>": 403,
      "<0xDE>": 404,
      "<0xDF>": 405,
      "<0xE0>": 406,
      "<0xE1>": 407,
      "<0xE2>": 408,
      "<0xE3>": 409,
      "<0xE4>": 410,
      "<0xE5>": 411,
      "<0xE6>": 412,
      "<0xE7>": 413,
      "<0xE8>": 414,
      "<0xE9>": 415,
      "<0xEA>": 416,
      "<0xEB>": 417,
      "<0xEC>": 418,
      "<0xED>": 419,
      "<0xEE>": 420,
      "<0xEF>": 421,
      "<0xF0>": 422,
      "<0xF1>": 423,
      "<0xF2>": 424,
      "<0xF3>": 425,
      "<0xF4>": 426,
      "<0xF5>": 427,
      "<0xF6>": 428,
      "<0xF7>": 429,
      "<0xF8>": 430,
      "<0xF9>": 431,
      "<0xFA>": 432,
      "<0xFB>": 433,
      "<0xFC>": 434,
      "<0xFD>": 435,
      "<0xFE>": 436,
      "<0xFF>": 437,
      "er": 438,
      "in": 439,
      "ar": 440,
      "an": 441,
      "▁b": 442,
      "en": 443,
      "▁t": 444,
      "▁d": 445,
      "▁s": 446,
      "al": 447,
      "ir": 448,
      "▁k": 449,
      "il": 450,
      "ın": 451,
      "▁o": 452,
      "el": 453,
      "▁g": 454,
      "ma": 455,
      "es": 456,
      "▁y": 457,
      "at": 458,
      "on": 459,
      "lar": 460,
      "▁v": 461,
      "ed": 462,
      "et": 463,
      "ek": 464,
      "or": 465,
      "ak": 466,
      "▁i": 467,
      "as": 468,
      "▁h": 469,
      "un": 470,
      "la": 471,
      "em": 472,
      "ler": 473,
      "▁a": 474,
      "▁ve": 475,
      "da": 476,
      "im": 477,
      "▁th": 478,
      "it": 479,
      "ik": 480,
      "ur": 481,
      "ır": 482,
      "is": 483,
      "▁p": 484,
      "▁m": 485,
      "▁bir": 486,
      "de": 487,
      "iy": 488,
      "ul": 489,
      "▁an": 490,
      "▁the": 491,
      "▁B": 492,
      "ün": 493,
      "lı": 494,
      "▁ç": 495,
      "▁f": 496,
      "le": 497,
      "şt": 498,
      "iz": 499,
      "▁c": 500,
      "ay": 501,
      "▁ol": 502,
      "▁A": 503,
      "▁in": 504,
      "ür": 505,
      "ey": 506,
      "dı": 507,
      "am": 508,
      "ti": 509,
      "▁T": 510,
      "ol": 511,
      "▁de": 512,
      "ıl": 513,
      "▁w": 514,
      "ap": 515,
      "▁ö": 516,
      "▁S": 517,
      "▁r": 518,
      "um": 519,
      "ec": 520,
      "st": 521,
      "▁of": 522,
      "ic": 523,
      "▁n": 524,
      "▁K": 525,
      "du": 526,
      "iş": 527,
      "ış": 528,
      "ah": 529,
      "aş": 530,
      "ro": 531,
      "li": 532,
      "▁gö": 533,
      "ab": 534,
      "lan": 535,
      "▁ar": 536,
      "▁and": 537,
      "di": 538,
      "▁il": 539,
      "dan": 540,
      "ok": 541,
      "▁al": 542,
      "ık": 543,
      "az": 544,
      "üz": 545,
      "▁M": 546,
      "ların": 547,
      "▁iç": 548,
      "ım": 549,
      "ine": 550,
      "ad": 551,
      "ev": 552,
      "ağ": 553,
      "▁u": 554,
      "ız": 555,
      "den": 556,
      "ini": 557,
      "ac": 558,
      "▁to": 559,
      "▁D": 560,
      "ing": 561,
      "▁ş": 562,
      "ion": 563,
      "▁(": 564,
      "ük": 565,
      "ında": 566,
      "▁H": 567,
      "om": 568,
      "inde": 569,
      "ları": 570,
      "ent": 571,
      "av": 572,
      "▁bu": 573,
      "esi": 574,
      "▁E": 575,
      "mak": 576,
      "▁ed": 577,
      "eri": 578,
      "ut": 579,
      "us": 580,
      "mas": 581,
      "ya": 582,
      "ce": 583,
      "▁İ": 584,
      "leri": 585,
      "yor": 586,
      "▁Y": 587,
      "▁e": 588,
      "▁et": 589,
      "üm": 590,
      "inin": 591,
      "▁gör": 592,
      "▁G": 593,
      "▁için": 594,
      "▁P": 595,
      "ere": 596,
      "alar": 597,
      "▁yap": 598,
      "ra": 599,
      "lik": 600,
      "..": 601,
      "▁z": 602,
      "ıs": 603,
      "ilm": 604,
      "▁st": 605,
      "▁on": 606,
      "ını": 607,
      "ği": 608,
      "ib": 609,
      "ştır": 610,
      "ation": 611,
      "len": 612,
      "▁is": 613,
      "ön": 614,
      "iyor": 615,
      "eb": 616,
      "dir": 617,
      "▁da": 618,
      "▁son": 619,
      "uk": 620,
      "mı": 621,
      "ip": 622,
      "larak": 623,
      "ül": 624,
      "iler": 625,
      "▁kar": 626,
      "▁ile": 627,
      "eler": 628,
      "▁C": 629,
      "eş": 630,
      "▁O": 631,
      "▁gel": 632,
      "ştir": 633,
      "▁kul": 634,
      "lık": 635,
      "os": 636,
      "oğ": 637,
      "▁değ": 638,
      "ta": 639,
      "ilir": 640,
      "▁ön": 641,
      "▁baş": 642,
      "▁I": 643,
      "if": 644,
      "lem": 645,
      "ist": 646,
      "ekt": 647,
      "▁or": 648,
      "ına": 649,
      "▁kullan": 650,
      "ez": 651,
      "ğı": 652,
      "üş": 653,
      "▁ver": 654,
      "▁oldu": 655,
      "re": 656,
      "▁en": 657,
      "eç": 658,
      "▁Bu": 659,
      "▁F": 660,
      "▁olarak": 661,
      "▁kal": 662,
      "tı": 663,
      "▁pro": 664,
      "id": 665,
      "iye": 666,
      "dır": 667,
      "unu": 668,
      "man": 669,
      "ru": 670,
      "▁bil": 671,
      "edi": 672,
      "ot": 673,
      "af": 674,
      "ers": 675,
      "▁ay": 676,
      "od": 677,
      "▁\"": 678,
      "▁N": 679,
      "ması": 680,
      "aha": 681,
      "▁el": 682,
      "tion": 683,
      "▁çok": 684,
      "lu": 685,
      "ark": 686,
      "lay": 687,
      "iv": 688,
      "op": 689,
      "oc": 690,
      "lerin": 691,
      "alış": 692,
      "▁ger": 693,
      "uş": 694,
      "est": 695,
      "▁kon": 696,
      "cı": 697,
      "ki": 698,
      "▁R": 699,
      "▁uy": 700,
      "ast": 701,
      "▁var": 702,
      "ibi": 703,
      "ig": 704,
      "ından": 705,
      "▁daha": 706,
      "▁Th": 707,
      "uz": 708,
      "▁olan": 709,
      "▁Ç": 710,
      "lam": 711,
      "te": 712,
      "▁bul": 713,
      "ter": 714,
      "ının": 715,
      "end": 716,
      "▁l": 717,
      "▁con": 718,
      "iştir": 719,
      "tr": 720,
      "ası": 721,
      "öz": 722,
      "▁“": 723,
      "me": 724,
      "ts": 725,
      "yon": 726,
      "▁ma": 727,
      "▁tar": 728,
      "▁-": 729,
      "▁olduğ": 730,
      "▁gibi": 731,
      "▁as": 732,
      "ep": 733,
      "tan": 734,
      "▁kad": 735,
      "alı": 736,
      "▁iş": 737,
      "aki": 738,
      "anı": 739,
      "▁be": 740,
      "ch": 741,
      "ith": 742,
      "▁çalış": 743,
      "eni": 744,
      "up": 745,
      "▁sür": 746,
      "▁par": 747,
      "ca": 748,
      "ör": 749,
      "ans": 750,
      "ud": 751,
      "▁ne": 752,
      "▁ür": 753,
      "öy": 754,
      "▁was": 755,
      "▁bel": 756,
      "üy": 757,
      "oy": 758,
      "iniz": 759,
      "▁An": 760,
      "▁were": 761,
      "▁yer": 762,
      "▁aç": 763,
      "ğr": 764,
      "▁ama": 765,
      "eki": 766,
      "mış": 767,
      "ess": 768,
      "mıştır": 769,
      "▁çık": 770,
      "isi": 771,
      "uy": 772,
      "▁yön": 773,
      "▁V": 774,
      "eden": 775,
      "ıldı": 776,
      "▁for": 777,
      "▁ist": 778,
      "▁L": 779,
      "▁üz": 780,
      "aman": 781,
      "aç": 782,
      "▁dur": 783,
      "laş": 784,
      "▁at": 785,
      "▁with": 786,
      "ih": 787,
      "▁her": 788,
      "▁gün": 789,
      "ama": 790,
      "ilen": 791,
      "▁düş": 792,
      "ili": 793,
      "ken": 794,
      "ef": 795,
      "eli": 796,
      "iç": 797,
      "sel": 798,
      "▁öz": 799,
      "ıyor": 800,
      "▁res": 801,
      "th": 802,
      "cak": 803,
      "eğ": 804,
      "edir": 805,
      "erm": 806,
      "og": 807,
      "üt": 808,
      "▁yaş": 809,
      "uşt": 810,
      "unda": 811,
      "daki": 812,
      "san": 813,
      "lama": 814,
      "▁inc": 815,
      "▁iy": 816,
      "▁sağ": 817,
      "▁doğ": 818,
      "yla": 819,
      "ürk": 820,
      "ly": 821,
      "▁The": 822,
      "▁geç": 823,
      "▁uyg": 824,
      "▁yar": 825,
      "üç": 826,
      "mek": 827,
      "▁ak": 828,
      "...": 829,
      "ity": 830,
      "▁wh": 831,
      "asında": 832,
      "▁etk": 833,
      "▁Ö": 834,
      "▁kur": 835,
      "▁In": 836,
      "eye": 837,
      "dım": 838,
      "▁zaman": 839,
      "ılı": 840,
      "▁su": 841,
      "ow": 842,
      "▁that": 843,
      "ge": 844,
      "▁karş": 845,
      "▁ex": 846,
      "ılan": 847,
      "for": 848,
      "▁gen": 849,
      "▁kadar": 850,
      "ant": 851,
      "▁ad": 852,
      "▁bulun": 853,
      "▁ben": 854,
      "▁are": 855,
      "▁fark": 856,
      "▁ev": 857,
      "may": 858,
      "sa": 859,
      "▁dev": 860,
      "inden": 861,
      "▁ürün": 862,
      "iyle": 863,
      "▁pr": 864,
      "aya": 865,
      "ada": 866,
      "▁tek": 867,
      "lü": 868,
      "▁sor": 869,
      "iyet": 870,
      "▁top": 871,
      "▁üzer": 872,
      "▁dön": 873,
      "▁bak": 874,
      "ate": 875,
      "öl": 876,
      "gi": 877,
      "▁kay": 878,
      "ci": 879,
      "▁belir": 880,
      "▁Türk": 881,
      "▁U": 882,
      "se": 883,
      "imi": 884,
      "▁sonra": 885,
      "▁kap": 886,
      "arak": 887,
      "tur": 888,
      "deki": 889,
      "uc": 890,
      "▁yan": 891,
      "▁şey": 892,
      "▁düz": 893,
      "oz": 894,
      "ecek": 895,
      "▁anal": 896,
      "qu": 897,
      "uştur": 898,
      "tic": 899,
      "makt": 900,
      "eh": 901,
      "udy": 902,
      "üc": 903,
      "▁gerek": 904,
      "tiv": 905,
      "▁Ş": 906,
      "let": 907,
      "▁Ü": 908,
      "▁bağ": 909,
      "lara": 910,
      "unun": 911,
      "▁den": 912,
      "▁study": 913,
      "ht": 914,
      "▁ek": 915,
      "▁com": 916,
      "ısı": 917,
      "▁ort": 918,
      "▁iyi": 919,
      "▁öğr": 920,
      "▁this": 921,
      "▁göre": 922,
      "▁ac": 923,
      "miş": 924,
      "adır": 925,
      "▁değil": 926,
      "▁met": 927,
      "▁söz": 928,
      "lab": 929,
      "▁uz": 930,
      "▁im": 931,
      "▁yüz": 932,
      "▁hal": 933,
      "ellik": 934,
      "▁hem": 935,
      "▁say": 936,
      "▁Bir": 937,
      "asyon": 938,
      "dü": 939,
      "ram": 940,
      "▁değer": 941,
      "▁W": 942,
      "acak": 943,
      "▁büy": 944,
      "ley": 945,
      "▁olduğu": 946,
      "men": 947,
      "▁karşı": 948,
      "ents": 949,
      "▁kend": 950,
      "▁art": 951,
      "ect": 952,
      "ğer": 953,
      "ri": 954,
      "▁şek": 955,
      "larını": 956,
      "oj": 957,
      "▁göz": 958,
      "▁has": 959,
      "elim": 960,
      "una": 961,
      "larda": 962,
      "ical": 963,
      "maya": 964,
      "der": 965,
      "ıp": 966,
      "maktadır": 967,
      "iyat": 968,
      "▁by": 969,
      "▁öl": 970,
      "▁önem": 971,
      "▁hav": 972,
      "rı": 973,
      "lerini": 974,
      "▁le": 975,
      "▁es": 976,
      "larının": 977,
      "dığı": 978,
      "ana": 979,
      "▁göst": 980,
      "imiz": 981,
      "▁düşün": 982,
      "▁har": 983,
      "▁böl": 984,
      "▁yük": 985,
      "lat": 986,
      "▁Al": 987,
      "malar": 988,
      "▁yak": 989,
      "dığ": 990,
      "erek": 991,
      "),": 992,
      "ran": 993,
      "▁us": 994,
      "▁yaz": 995,
      "elik": 996,
      "▁yok": 997,
      "▁ise": 998,
      "▁yıl": 999,
      "▁re": 1000,
      "ştı": 1001,
      "arı": 1002,
      "ated": 1003,
      "lerinin": 1004,
      "ektedir": 1005,
      "ear": 1006,
      "fer": 1007,
      "ede": 1008,
      "ost": 1009,
      "▁kat": 1010,
      "▁ch": 1011,
      "lendir": 1012,
      "▁hast": 1013,
      "enc": 1014,
      "▁di": 1015,
      "üzel": 1016,
      "per": 1017,
      "ined": 1018,
      "por": 1019,
      "ici": 1020,
      "ebilir": 1021,
      "üs": 1022,
      "oloj": 1023,
      "ff": 1024,
      "ov": 1025,
      "uyor": 1026,
      "ağı": 1027,
      "enin": 1028,
      "▁hay": 1029,
      "▁sah": 1030,
      "ıldız": 1031,
      "bir": 1032,
      "oun": 1033,
      "abilir": 1034,
      "eleri": 1035,
      "▁gerç": 1036,
      "mesi": 1037,
      "art": 1038,
      "nin": 1039,
      "met": 1040,
      "▁durum": 1041,
      "ade": 1042,
      "▁yol": 1043,
      "▁gru": 1044,
      "▁hak": 1045,
      "ork": 1046,
      "and": 1047,
      "ğu": 1048,
      "▁farklı": 1049,
      "▁det": 1050,
      "▁tem": 1051,
      "▁arasında": 1052,
      "▁un": 1053,
      ").": 1054,
      "lük": 1055,
      "▁söy": 1056,
      "▁per": 1057,
      "emi": 1058,
      "▁tak": 1059,
      "▁mod": 1060,
      "ildi": 1061,
      "▁it": 1062,
      "ive": 1063,
      "▁ok": 1064,
      "gu": 1065,
      "▁der": 1066,
      "ations": 1067,
      "▁büyük": 1068,
      "esinde": 1069,
      "▁alan": 1070,
      "▁taraf": 1071,
      "▁alt": 1072,
      "eği": 1073,
      "oş": 1074,
      "▁tes": 1075,
      "▁sır": 1076,
      "ileri": 1077,
      "tt": 1078,
      "▁ser": 1079,
      "▁hiç": 1080,
      "ka": 1081,
      "▁Ay": 1082,
      "rom": 1083,
      "▁edilm": 1084,
      "ment": 1085,
      "ati": 1086,
      "ich": 1087,
      "▁sev": 1088,
      "erk": 1089,
      "ob": 1090,
      "▁ara": 1091,
      "▁veya": 1092,
      "▁em": 1093,
      "kin": 1094,
      "▁iki": 1095,
      "ten": 1096,
      "ınız": 1097,
      "▁insan": 1098,
      "▁gro": 1099,
      "elen": 1100,
      "ord": 1101,
      "▁az": 1102,
      "▁Yıldız": 1103,
      "▁iliş": 1104,
      "▁şekil": 1105,
      "ww": 1106,
      "▁anlam": 1107,
      "lığı": 1108,
      "▁comp": 1109,
      "nı": 1110,
      "▁Ar": 1111,
      "▁ki": 1112,
      "▁olma": 1113,
      "uç": 1114,
      "▁dedi": 1115,
      "▁Z": 1116,
      "etim": 1117,
      "▁diye": 1118,
      "ps": 1119,
      "▁duy": 1120,
      "▁güzel": 1121,
      "eyi": 1122,
      "lere": 1123,
      "▁bas": 1124,
      "ara": 1125,
      "ındaki": 1126,
      "▁tut": 1127,
      "▁yeni": 1128,
      "lığ": 1129,
      "▁kiş": 1130,
      "ılmıştır": 1131,
      "ıcı": 1132,
      "anın": 1133,
      "izi": 1134,
      "bul": 1135,
      "▁yet": 1136,
      "trol": 1137,
      "ımı": 1138,
      "▁boy": 1139,
      "üst": 1140,
      "ulan": 1141,
      "mi": 1142,
      "▁alın": 1143,
      "▁neden": 1144,
      "▁seç": 1145,
      "sek": 1146,
      "▁ya": 1147,
      "larına": 1148,
      "stan": 1149,
      "alık": 1150,
      "ile": 1151,
      "si": 1152,
      "miştir": 1153,
      "▁eder": 1154,
      "ünü": 1155,
      "▁değiş": 1156,
      "ven": 1157,
      "▁ör": 1158,
      "▁ağ": 1159,
      "ğini": 1160,
      "▁ilk": 1161,
      "abil": 1162,
      ".\"": 1163,
      "▁ap": 1164,
      "een": 1165,
      "▁eğ": 1166,
      "▁gir": 1167,
      "esine": 1168,
      "▁önemli": 1169,
      "▁faz": 1170,
      "tar": 1171,
      "ime": 1172,
      "tik": 1173,
      "▁%": 1174,
      "ne": 1175,
      "endi": 1176,
      "raf": 1177,
      "olay": 1178,
      "ies": 1179,
      "▁group": 1180,
      "esin": 1181,
      "dür": 1182,
      "uh": 1183,
      "▁dif": 1184,
      "▁ilg": 1185,
      "ence": 1186,
      "ys": 1187,
      "▁çek": 1188,
      "▁İn": 1189,
      "stanbul": 1190,
      "▁bet": 1191,
      "nun": 1192,
      "liği": 1193,
      "tır": 1194,
      "asıl": 1195,
      "azı": 1196,
      "▁aş": 1197,
      "▁araştır": 1198,
      "ladı": 1199,
      "▁oy": 1200,
      "▁kalit": 1201,
      "▁özellik": 1202,
      "iyordu": 1203,
      "▁can": 1204,
      "eme": 1205,
      "larında": 1206,
      "ça": 1207,
      "alu": 1208,
      "▁şekilde": 1209,
      "ocuk": 1210,
      "//": 1211,
      "▁kıs": 1212,
      "ach": 1213,
      "lerde": 1214,
      "://": 1215,
      "▁doğru": 1216,
      "com": 1217,
      "ign": 1218,
      "▁tan": 1219,
      "ese": 1220,
      "leştir": 1221,
      "▁tr": 1222,
      "luk": 1223,
      "lerine": 1224,
      "sız": 1225,
      "▁which": 1226,
      "▁olduğunu": 1227,
      "▁ob": 1228,
      "siniz": 1229,
      "▁kö": 1230,
      "üşt": 1231,
      ".\\": 1232,
      "ize": 1233,
      "eceğ": 1234,
      "▁san": 1235,
      "ımız": 1236,
      "pl": 1237,
      "▁iz": 1238,
      "▁göster": 1239,
      "ret": 1240,
      "aları": 1241,
      "esini": 1242,
      "nın": 1243,
      "lardan": 1244,
      "iyon": 1245,
      "ition": 1246,
      "▁htt": 1247,
      "han": 1248,
      "öyle": 1249,
      "▁açık": 1250,
      "usu": 1251,
      "ub": 1252,
      "▁dem": 1253,
      "▁çev": 1254,
      "▁çalışma": 1255,
      "ünde": 1256,
      "ag": 1257,
      "manın": 1258,
      "tem": 1259,
      "▁li": 1260,
      "▁https": 1261,
      "▁içinde": 1262,
      "ütün": 1263,
      "▁etm": 1264,
      "ilerin": 1265,
      "▁ada": 1266,
      "ver": 1267,
      "ata": 1268,
      "ens": 1269,
      "ide": 1270,
      "▁J": 1271,
      "ER": 1272,
      "şti": 1273,
      "▁from": 1274,
      "ân": 1275,
      "▁gerçek": 1276,
      "etir": 1277,
      "muş": 1278,
      "▁have": 1279,
      "▁sp": 1280,
      "▁been": 1281,
      "▁hız": 1282,
      "▁sık": 1283,
      "uv": 1284,
      "iyorum": 1285,
      "▁ter": 1286,
      "▁pol": 1287,
      "▁differ": 1288,
      "ilik": 1289,
      "ween": 1290,
      "▁sahip": 1291,
      "ıy": 1292,
      "▁Beş": 1293,
      "leş": 1294,
      "yal": 1295,
      "▁içer": 1296,
      "ayı": 1297,
      "duc": 1298,
      "▁yüksek": 1299,
      "pt": 1300,
      "ific": 1301,
      "▁Son": 1302,
      "▁İstanbul": 1303,
      "▁between": 1304,
      "▁fazla": 1305,
      "ekk": 1306,
      "▁bilg": 1307,
      "▁getir": 1308,
      "ind": 1309,
      "▁gü": 1310,
      "▁dis": 1311,
      "▁tür": 1312,
      "dık": 1313,
      "ika": 1314,
      "▁kelim": 1315,
      "▁diğer": 1316,
      "tür": 1317,
      "sun": 1318,
      "▁kab": 1319,
      "ale": 1320,
      "▁test": 1321,
      "our": 1322,
      "dur": 1323,
      "▁bur": 1324,
      "onom": 1325,
      "labilir": 1326,
      "▁sh": 1327,
      "▁kor": 1328,
      "ahat": 1329,
      "▁tav": 1330,
      "▁sist": 1331,
      "tif": 1332,
      "alan": 1333,
      "ye": 1334,
      "▁çıkar": 1335,
      "maz": 1336,
      "çe": 1337,
      "▁eff": 1338,
      "▁aynı": 1339,
      "▁görün": 1340,
      "tor": 1341,
      "tu": 1342,
      "ure": 1343,
      "▁tarih": 1344,
      "▁değerlendir": 1345,
      "AR": 1346,
      "tü": 1347,
      "ayan": 1348,
      "▁dış": 1349,
      "vel": 1350,
      "▁taş": 1351,
      "▁oluştur": 1352,
      "▁etti": 1353,
      "▁haz": 1354,
      "▁birlik": 1355,
      "olog": 1356,
      "▁önce": 1357,
      "ber": 1358,
      "kü": 1359,
      "ary": 1360,
      "siz": 1361,
      "▁te": 1362,
      "aber": 1363,
      "▁rel": 1364,
      "▁tarafından": 1365,
      "med": 1366,
      "tal": 1367,
      "▁üst": 1368,
      "▁uygu": 1369,
      "▁olur": 1370,
      "aret": 1371,
      "ard": 1372,
      "her": 1373,
      "▁bölüm": 1374,
      "gram": 1375,
      "▁model": 1376,
      "ite": 1377,
      "ill": 1378,
      "▁dik": 1379,
      "elerin": 1380,
      "▁zor": 1381,
      "▁tüm": 1382,
      "▁ölç": 1383,
      "▁used": 1384,
      "▁resul": 1385,
      "üyor": 1386,
      "▁kim": 1387,
      "▁En": 1388,
      "muştur": 1389,
      "earch": 1390,
      "ülm": 1391,
      "lacak": 1392,
      "▁determ": 1393,
      "na": 1394,
      "lerinde": 1395,
      "hod": 1396,
      "▁mi": 1397,
      "sal": 1398,
      "itim": 1399,
      "pr": 1400,
      "ayet": 1401,
      "▁dün": 1402,
      "▁er": 1403,
      "olu": 1404,
      "üne": 1405,
      "▁uygun": 1406,
      "siyon": 1407,
      "diği": 1408,
      "gan": 1409,
      "▁hakk": 1410,
      "▁pati": 1411,
      "AN": 1412,
      "orm": 1413,
      "edav": 1414,
      "eket": 1415,
      "▁stu": 1416,
      "mıştı": 1417,
      "▁ortaya": 1418,
      "rıca": 1419,
      "▁fiyat": 1420,
      "▁mem": 1421,
      "▁sı": 1422,
      "ound": 1423,
      "▁inter": 1424,
      ".”": 1425,
      "▁sign": 1426,
      "▁bek": 1427,
      "▁bile": 1428,
      "ug": 1429,
      "atı": 1430,
      "▁yay": 1431,
      "▁incelen": 1432,
      "leme": 1433,
      "reas": 1434,
      "▁mal": 1435,
      "ore": 1436,
      "▁üç": 1437,
      "ial": 1438,
      "aat": 1439,
      "▁din": 1440,
      "▁mak": 1441,
      "▁geliş": 1442,
      "▁hat": 1443,
      "▁kan": 1444,
      "▁teş": 1445,
      "▁sonuç": 1446,
      "▁ilgili": 1447,
      "▁edilen": 1448,
      "▁birlikte": 1449,
      "üp": 1450,
      "▁gelen": 1451,
      "▁çocuk": 1452,
      "▁ab": 1453,
      "laştır": 1454,
      "▁sc": 1455,
      "▁sal": 1456,
      "liğ": 1457,
      "▁Tur": 1458,
      "eyen": 1459,
      "▁grub": 1460,
      "▁perfor": 1461,
      "▁yapı": 1462,
      "▁nasıl": 1463,
      "unuz": 1464,
      "ous": 1465,
      "siye": 1466,
      "▁Ama": 1467,
      "esinin": 1468,
      "tir": 1469,
      "ece": 1470,
      "▁As": 1471,
      "gil": 1472,
      "tions": 1473,
      "avaş": 1474,
      "pit": 1475,
      "▁level": 1476,
      "las": 1477,
      "▁kendi": 1478,
      "ilmesi": 1479,
      "ılmış": 1480,
      "▁git": 1481,
      "▁onun": 1482,
      "▁kayn": 1483,
      "▁signific": 1484,
      "ekkür": 1485,
      "▁tab": 1486,
      "gı": 1487,
      "▁kit": 1488,
      "▁dönem": 1489,
      "▁yöntem": 1490,
      "▁üzerinde": 1491,
      "ılması": 1492,
      "lak": 1493,
      "▁bütün": 1494,
      "▁Kar": 1495,
      "▁oluş": 1496,
      "▁research": 1497,
      "▁ilişk": 1498,
      "lah": 1499,
      "▁not": 1500,
      "▁tas": 1501,
      "▁me": 1502,
      "min": 1503,
      "▁rahat": 1504,
      "dim": 1505,
      "gin": 1506,
      "▁Türkiye": 1507,
      "to": 1508,
      "▁program": 1509,
      "ve": 1510,
      "iss": 1511,
      "▁method": 1512,
      "▁kav": 1513,
      "▁başka": 1514,
      "uma": 1515,
      "▁geldi": 1516,
      "▁uzun": 1517,
      "larla": 1518,
      "▁örn": 1519,
      "▁üzerine": 1520,
      "▁qu": 1521,
      "▁fak": 1522,
      "▁güven": 1523,
      "ilmiştir": 1524,
      "lum": 1525,
      "▁kız": 1526,
      "▁İs": 1527,
      "▁güç": 1528,
      "sin": 1529,
      "▁patients": 1530,
      "▁kaz": 1531,
      "ell": 1532,
      "undan": 1533,
      "lerden": 1534,
      "izmet": 1535,
      "▁elde": 1536,
      "ırak": 1537,
      "▁significant": 1538,
      "▁ses": 1539,
      "▁sy": 1540,
      "▁sat": 1541,
      "mel": 1542,
      "▁belirlen": 1543,
      "▁anlamlı": 1544,
      "adece": 1545,
      "▁haf": 1546,
      "ılır": 1547,
      "▁düzey": 1548,
      "masına": 1549,
      "▁their": 1550,
      "rak": 1551,
      "net": 1552,
      "▁biri": 1553,
      "suz": 1554,
      "ekten": 1555,
      "▁plan": 1556,
      "▁sonuc": 1557,
      "▁kr": 1558,
      "emek": 1559,
      "▁onu": 1560,
      "lâ": 1561,
      "▁tedav": 1562,
      "▁hep": 1563,
      "▁Pro": 1564,
      "indeki": 1565,
      "tive": 1566,
      "▁iht": 1567,
      "▁ark": 1568,
      "▁Ara": 1569,
      "kı": 1570,
      "ish": 1571,
      "malı": 1572,
      "üçük": 1573,
      "van": 1574,
      "led": 1575,
      "ivers": 1576,
      "lerinden": 1577,
      "meye": 1578,
      "acağ": 1579,
      "▁dok": 1580,
      "▁olmak": 1581,
      "▁ederim": 1582,
      "ledi": 1583,
      "isinde": 1584,
      "▁önc": 1585,
      "▁Baş": 1586,
      "▁yapılan": 1587,
      "▁str": 1588,
      "▁tel": 1589,
      "isini": 1590,
      "▁prob": 1591,
      "âr": 1592,
      "▁kadın": 1593,
      "ilmiş": 1594,
      "ted": 1595,
      "▁mu": 1596,
      "ektir": 1597,
      "▁hareket": 1598,
      "out": 1599,
      "erat": 1600,
      "cess": 1601,
      "dum": 1602,
      "▁dil": 1603,
      "▁dav": 1604,
      "▁cons": 1605,
      "ni": 1606,
      "▁mü": 1607,
      "▁Er": 1608,
      "▁özel": 1609,
      "▁eş": 1610,
      "osyal": 1611,
      "▁kontrol": 1612,
      "ülk": 1613,
      "vet": 1614,
      "▁bazı": 1615,
      "▁koy": 1616,
      "▁app": 1617,
      "of": 1618,
      "▁çeş": 1619,
      "▁Çalış": 1620,
      "▁exam": 1621,
      "▁bırak": 1622,
      "istic": 1623,
      "▁hazır": 1624,
      "▁olması": 1625,
      "▁hig": 1626,
      "rar": 1627,
      "▁mes": 1628,
      "▁sistem": 1629,
      "▁yat": 1630,
      "▁sorun": 1631,
      "▁analys": 1632,
      "dik": 1633,
      "▁gön": 1634,
      "kat": 1635,
      "▁olduk": 1636,
      "etr": 1637,
      "▁sun": 1638,
      "▁mut": 1639,
      "www": 1640,
      "▁man": 1641,
      "▁uygulan": 1642,
      "ew": 1643,
      "▁Ür": 1644,
      "sik": 1645,
      "lin": 1646,
      "▁bit": 1647,
      "▁Turk": 1648,
      "▁fir": 1649,
      "ıt": 1650,
      "▁anla": 1651,
      "ement": 1652,
      "▁ik": 1653,
      "ulu": 1654,
      "olojik": 1655,
      "ern": 1656,
      "vi": 1657,
      "▁dest": 1658,
      "ser": 1659,
      "▁amacı": 1660,
      "mayan": 1661,
      "▁grup": 1662,
      "▁Or": 1663,
      "ğü": 1664,
      "elop": 1665,
      "▁aras": 1666,
      "▁konu": 1667,
      "larından": 1668,
      "masını": 1669,
      "▁kaç": 1670,
      "▁hizmet": 1671,
      "▁data": 1672,
      "are": 1673,
      "▁he": 1674,
      "ince": 1675,
      "▁sub": 1676,
      "▁gid": 1677,
      "kan": 1678,
      "▁adam": 1679,
      "▁düzen": 1680,
      "▁kır": 1681,
      "ruc": 1682,
      "▁if": 1683,
      "duğu": 1684,
      "aların": 1685,
      "▁yür": 1686,
      "▁devam": 1687,
      "ünkü": 1688,
      "als": 1689,
      "mayı": 1690,
      "ört": 1691,
      "▁problem": 1692,
      "▁Ben": 1693,
      "lerle": 1694,
      "▁Kur": 1695,
      "go": 1696,
      "age": 1697,
      "▁found": 1698,
      "▁analiz": 1699,
      "▁tavsiye": 1700,
      "cu": 1701,
      "▁kolay": 1702,
      "▁Öz": 1703,
      "eti": 1704,
      "ünün": 1705,
      "▁kullanı": 1706,
      "▁these": 1707,
      "▁eğitim": 1708,
      "?\"": 1709,
      "▁kes": 1710,
      "▁çeşit": 1711,
      "▁stat": 1712,
      "isk": 1713,
      "yle": 1714,
      "▁çöz": 1715,
      "▁develop": 1716,
      "ısından": 1717,
      "▁öğren": 1718,
      "▁sap": 1719,
      "▁sonr": 1720,
      "▁Ak": 1721,
      "▁saat": 1722,
      "▁Her": 1723,
      "▁Araştır": 1724,
      "▁—": 1725,
      "▁tam": 1726,
      "▁yor": 1727,
      "▁sur": 1728,
      "▁eden": 1729,
      "▁work": 1730,
      "▁sadece": 1731,
      "ose": 1732,
      "▁increas": 1733,
      "▁benz": 1734,
      "▁sam": 1735,
      "ong": 1736,
      "▁anlat": 1737,
      "▁İl": 1738,
      "mız": 1739,
      "mektedir": 1740,
      "▁bun": 1741,
      "imdi": 1742,
      "tığı": 1743,
      "ally": 1744,
      "▁kaynak": 1745,
      "▁num": 1746,
      "▁mark": 1747,
      "acı": 1748,
      "▁El": 1749,
      "reat": 1750,
      "▁yaşam": 1751,
      "▁bölg": 1752,
      "aln": 1753,
      "▁hızlı": 1754,
      "ild": 1755,
      "▁edilmiştir": 1756,
      "all": 1757,
      "enk": 1758,
      "lardı": 1759,
      "▁görüş": 1760,
      "dığını": 1761,
      "▁deney": 1762,
      "ph": 1763,
      "▁tespit": 1764,
      "▁karar": 1765,
      "▁tekn": 1766,
      ",\"": 1767,
      "▁reg": 1768,
      "ond": 1769,
      "▁am": 1770,
      "▁ülk": 1771,
      "layan": 1772,
      "▁böyle": 1773,
      "eg": 1774,
      "▁performan": 1775,
      "▁amaç": 1776,
      "ima": 1777,
      "sam": 1778,
      "▁bağlı": 1779,
      "▁ulaş": 1780,
      "▁sözlük": 1781,
      "▁sağlık": 1782,
      "alnız": 1783,
      "▁hayat": 1784,
      "▁benim": 1785,
      "▁tah": 1786,
      "▁On": 1787,
      "▁mil": 1788,
      "▁kom": 1789,
      "▁küçük": 1790,
      "▁mı": 1791,
      "▁Ayrıca": 1792,
      "par": 1793,
      "▁ihtiy": 1794,
      "▁kol": 1795,
      "ely": 1796,
      "usunda": 1797,
      "▁ele": 1798,
      "iyas": 1799,
      "▁bey": 1800,
      "det": 1801,
      "▁valu": 1802,
      "▁def": 1803,
      "▁bin": 1804,
      "▁hiçbir": 1805,
      "ellikle": 1806,
      "▁tasar": 1807,
      "lemek": 1808,
      "▁Bil": 1809,
      "▁hakkında": 1810,
      "ren": 1811,
      "▁ancak": 1812,
      "▁inv": 1813,
      "▁yardım": 1814,
      "erkez": 1815,
      "▁örnek": 1816,
      "▁soc": 1817,
      "lanan": 1818,
      "ational": 1819,
      "ice": 1820,
      "asını": 1821,
      "▁analysis": 1822,
      "▁konuş": 1823,
      "res": 1824,
      "bet": 1825,
      "▁olabilir": 1826,
      "gn": 1827,
      "lac": 1828,
      "▁ayr": 1829,
      "inc": 1830,
      "iksel": 1831,
      "▁impor": 1832,
      "ıyordu": 1833,
      "ry": 1834,
      "▁sen": 1835,
      "▁seb": 1836,
      "erj": 1837,
      "çok": 1838,
      "mer": 1839,
      "▁who": 1840,
      "▁ona": 1841,
      "▁trans": 1842,
      "umu": 1843,
      "▁geçir": 1844,
      "▁ph": 1845,
      "ative": 1846,
      "▁vardı": 1847,
      "▁we": 1848,
      "▁kabul": 1849,
      "ele": 1850,
      "EN": 1851,
      "▁do": 1852,
      "▁belirt": 1853,
      "▁form": 1854,
      "ültür": 1855,
      "ebil": 1856,
      "les": 1857,
      "işim": 1858,
      "ınıf": 1859,
      "so": 1860,
      "ain": 1861,
      "aba": 1862,
      "madan": 1863,
      "▁importan": 1864,
      "ari": 1865,
      "▁üzere": 1866,
      "▁hemen": 1867,
      "▁kazan": 1868,
      "ech": 1869,
      "ory": 1870,
      "▁biz": 1871,
      "stem": 1872,
      "ded": 1873,
      "ışı": 1874,
      "hip": 1875,
      "▁yaklaş": 1876,
      "ehir": 1877,
      "▁tama": 1878,
      "▁fac": 1879,
      "▁olup": 1880,
      "isinin": 1881,
      "yordu": 1882,
      "asına": 1883,
      "▁açısından": 1884,
      "ording": 1885,
      "yı": 1886,
      "▁sec": 1887,
      "▁acc": 1888,
      "Bu": 1889,
      "▁Çok": 1890,
      "ons": 1891,
      "ekkürler": 1892,
      "lo": 1893,
      "tık": 1894,
      "▁tanı": 1895,
      "▁'": 1896,
      "▁başar": 1897,
      "oloji": 1898,
      "▁biraz": 1899,
      "ture": 1900,
      "dition": 1901,
      "rit": 1902,
      "▁oyun": 1903,
      "▁çalışmalar": 1904,
      "▁memnun": 1905,
      "mada": 1906,
      "line": 1907,
      "gün": 1908,
      "▁etkil": 1909,
      "ects": 1910,
      "▁terc": 1911,
      "▁temel": 1912,
      "ros": 1913,
      "ust": 1914,
      "▁otur": 1915,
      "▁Ne": 1916,
      "▁biç": 1917,
      "▁yanı": 1918,
      "ron": 1919,
      "ediğ": 1920,
      "oth": 1921,
      "▁Gen": 1922,
      "▁mik": 1923,
      "▁pre": 1924,
      "▁öğrenc": 1925,
      "ök": 1926,
      "ities": 1927,
      "▁bulunan": 1928,
      "▁It": 1929,
      "▁geliştir": 1930,
      "▁dikkat": 1931,
      "▁evalu": 1932,
      "▁bilgi": 1933,
      "ang": 1934,
      "esti": 1935,
      "ekli": 1936,
      "▁işlem": 1937,
      "▁determined": 1938,
      "▁öğret": 1939,
      "▁sar": 1940,
      "▁j": 1941,
      "ome": 1942,
      "mation": 1943,
      "yi": 1944,
      "▁Bur": 1945,
      "▁bana": 1946,
      "şte": 1947,
      "▁different": 1948,
      "▁genel": 1949,
      "ket": 1950,
      "ase": 1951,
      "mez": 1952,
      "▁pek": 1953,
      "iydi": 1954,
      "üştür": 1955,
      "erç": 1956,
      "▁results": 1957,
      "II": 1958,
      "▁gösterm": 1959,
      "▁beb": 1960,
      "lamak": 1961,
      "▁ağır": 1962,
      "eral": 1963,
      "yp": 1964,
      "▁aim": 1965,
      "▁Ancak": 1966,
      "▁sit": 1967,
      "▁dir": 1968,
      "ala": 1969,
      "ings": 1970,
      "▁olacak": 1971,
      "▁görev": 1972,
      "▁Os": 1973,
      "ılım": 1974,
      "lim": 1975,
      "alt": 1976,
      "lec": 1977,
      "▁kork": 1978,
      "▁incel": 1979,
      "he": 1980,
      "ism": 1981,
      "▁exp": 1982,
      "tör": 1983,
      "▁Bey": 1984,
      "▁vari": 1985,
      "▁üret": 1986,
      "▁sak": 1987,
      "meler": 1988,
      "lanmıştır": 1989,
      "eniz": 1990,
      "gel": 1991,
      "▁toplum": 1992,
      "▁etmek": 1993,
      "ved": 1994,
      "▁«": 1995,
      "diğ": 1996,
      "▁mey": 1997,
      "ital": 1998,
      "▁mev": 1999,
      "ugh": 2000,
      "▁bec": 2001,
      "▁mad": 2002,
      "eceği": 2003,
      "▁sosyal": 2004,
      "istan": 2005,
      "ort": 2006,
      "▁organ": 2007,
      "tığ": 2008,
      "▁obta": 2009,
      "imde": 2010,
      "▁Gün": 2011,
      "AL": 2012,
      "ins": 2013,
      "▁geri": 2014,
      "mişti": 2015,
      "duğ": 2016,
      "isine": 2017,
      "▁zamanda": 2018,
      "▁düny": 2019,
      "ire": 2020,
      "tib": 2021,
      "âh": 2022,
      "▁yarat": 2023,
      "▁Bel": 2024,
      "▁sol": 2025,
      "tim": 2026,
      "▁produc": 2027,
      "▁hes": 2028,
      "giliz": 2029,
      "▁had": 2030,
      "one": 2031,
      "erg": 2032,
      "▁Kal": 2033,
      "oğun": 2034,
      "▁param": 2035,
      "▁using": 2036,
      "ther": 2037,
      "rup": 2038,
      "▁[": 2039,
      "▁arasındaki": 2040,
      "▁fa": 2041,
      "▁çevir": 2042,
      "▁sın": 2043,
      "▁tercih": 2044,
      "kinci": 2045,
      "kara": 2046,
      "▁boz": 2047,
      "itik": 2048,
      "▁id": 2049,
      "▁pos": 2050,
      "▁mas": 2051,
      "▁Kon": 2052,
      "▁siz": 2053,
      "uluk": 2054,
      "▁system": 2055,
      "efon": 2056,
      "able": 2057,
      "dents": 2058,
      "gın": 2059,
      "▁risk": 2060,
      "▁process": 2061,
      "▁Yap": 2062,
      "ekte": 2063,
      "▁inan": 2064,
      "▁altında": 2065,
      "▁all": 2066,
      "▁Söz": 2067,
      "▁diy": 2068,
      "uştu": 2069,
      "▁davran": 2070,
      "▁imp": 2071,
      "adaş": 2072,
      "▁tük": 2073,
      "▁kaliteli": 2074,
      "▁ag": 2075,
      "▁gerçekleştir": 2076,
      "▁yalnız": 2077,
      "inal": 2078,
      "rap": 2079,
      "▁boyut": 2080,
      "▁hed": 2081,
      "mat": 2082,
      "▁kok": 2083,
      "▁Ürün": 2084,
      "▁term": 2085,
      "unca": 2086,
      "ıntı": 2087,
      "ıyorum": 2088,
      "▁nok": 2089,
      "▁la": 2090,
      "▁ait": 2091,
      "mem": 2092,
      "ank": 2093,
      "▁sınıf": 2094,
      "ydı": 2095,
      "▁bilin": 2096,
      "▁lit": 2097,
      "matik": 2098,
      "▁birey": 2099,
      "ümüz": 2100,
      "▁out": 2101,
      "ool": 2102,
      "▁hiss": 2103,
      "▁Osman": 2104,
      "ight": 2105,
      "▁anlamı": 2106,
      "▁yağ": 2107,
      "▁Tar": 2108,
      "▁şu": 2109,
      "▁yönet": 2110,
      "▁birçok": 2111,
      "landır": 2112,
      "MA": 2113,
      "edim": 2114,
      "ia": 2115,
      "▁Har": 2116,
      "▁eser": 2117,
      "▁relations": 2118,
      "fter": 2119,
      "▁kam": 2120,
      "▁uzak": 2121,
      "▁col": 2122,
      "laştı": 2123,
      "▁kesin": 2124,
      "▁destek": 2125,
      "▁also": 2126,
      "▁kelime": 2127,
      "cü": 2128,
      "ünden": 2129,
      "▁control": 2130,
      "▁high": 2131,
      "▁hâ": 2132,
      "▁oran": 2133,
      "▁kullanım": 2134,
      "rik": 2135,
      "teri": 2136,
      "▁Fak": 2137,
      "abilirsiniz": 2138,
      "▁car": 2139,
      "ric": 2140,
      "?”": 2141,
      "▁groups": 2142,
      "▁görülm": 2143,
      "▁artık": 2144,
      "pec": 2145,
      "▁obtained": 2146,
      "ilerinin": 2147,
      "▁erk": 2148,
      "esis": 2149,
      "▁yakın": 2150,
      "▁koş": 2151,
      "▁bah": 2152,
      "yan": 2153,
      "▁pat": 2154,
      "▁kültür": 2155,
      "ise": 2156,
      "▁gelir": 2157,
      "ışık": 2158,
      "▁bi": 2159,
      "▁fır": 2160,
      "▁Kelim": 2161,
      "▁bunu": 2162,
      "▁gayet": 2163,
      "▁sürec": 2164,
      "nivers": 2165,
      "▁At": 2166,
      "▁Av": 2167,
      "▁dayan": 2168,
      "Lİ": 2169,
      "cc": 2170,
      "ormal": 2171,
      "▁İç": 2172,
      "▁vardır": 2173,
      "red": 2174,
      "▁:": 2175,
      "▁sab": 2176,
      "▁edil": 2177,
      "▁devlet": 2178,
      "▁Doğ": 2179,
      "alarda": 2180,
      "▁peri": 2181,
      "▁İş": 2182,
      "dın": 2183,
      "▁This": 2184,
      "▁–": 2185,
      "▁under": 2186,
      "ered": 2187,
      "▁birbir": 2188,
      "erli": 2189,
      "▁mer": 2190,
      "▁studi": 2191,
      "▁yönelik": 2192,
      "▁bakım": 2193,
      "aus": 2194,
      "▁tekrar": 2195,
      "▁â": 2196,
      "akk": 2197,
      "br": 2198,
      "▁çalışmada": 2199,
      "ords": 2200,
      "AT": 2201,
      "fe": 2202,
      "gen": 2203,
      "lus": 2204,
      "▁Ve": 2205,
      "▁çevr": 2206,
      "▁Dev": 2207,
      "▁students": 2208,
      "▁kapsam": 2209,
      "▁Ankara": 2210,
      "ular": 2211,
      "▁Ek": 2212,
      "itesi": 2213,
      "kaç": 2214,
      "labil": 2215,
      "aj": 2216,
      "▁kitap": 2217,
      "cel": 2218,
      "▁Ab": 2219,
      "▁mah": 2220,
      "▁orta": 2221,
      "ahtar": 2222,
      "ors": 2223,
      "▁aldım": 2224,
      "▁edildi": 2225,
      "▁X": 2226,
      "▁bilm": 2227,
      "azar": 2228,
      "▁part": 2229,
      "▁Ch": 2230,
      "▁geniş": 2231,
      "▁rec": 2232,
      "▁ul": 2233,
      "uğ": 2234,
      "▁there": 2235,
      "likle": 2236,
      "....": 2237,
      "▁yerine": 2238,
      "▁sel": 2239,
      "ebilirsiniz": 2240,
      "ected": 2241,
      "▁başladı": 2242,
      "▁kurul": 2243,
      "▁educ": 2244,
      "▁doğr": 2245,
      "uyla": 2246,
      "▁han": 2247,
      "ality": 2248,
      "▁araştırma": 2249,
      "▁other": 2250,
      "▁süre": 2251,
      "▁herk": 2252,
      "▁important": 2253,
      "▁compar": 2254,
      "▁mo": 2255,
      "imin": 2256,
      "gor": 2257,
      "▁min": 2258,
      "▁çeşitli": 2259,
      "umlu": 2260,
      "tin": 2261,
      "etik": 2262,
      "ological": 2263,
      "ue": 2264,
      "asının": 2265,
      "▁yine": 2266,
      "▁beni": 2267,
      "▁kez": 2268,
      "__": 2269,
      "▁parç": 2270,
      "▁öner": 2271,
      "▁day": 2272,
      "leriyle": 2273,
      "masında": 2274,
      "▁olay": 2275,
      "çı": 2276,
      "▁dol": 2277,
      "hy": 2278,
      "▁kavram": 2279,
      "gun": 2280,
      "▁dah": 2281,
      "▁Tek": 2282,
      "▁kullanılan": 2283,
      ",”": 2284,
      "▁tech": 2285,
      "inci": 2286,
      "ession": 2287,
      "▁oldukça": 2288,
      "▁özellikle": 2289,
      "lic": 2290,
      "çi": 2291,
      "▁ekonom": 2292,
      "▁temiz": 2293,
      "▁olmayan": 2294,
      "▁sil": 2295,
      "▁deği": 2296,
      "▁Es": 2297,
      "▁Bunun": 2298,
      "▁nit": 2299,
      "ayd": 2300,
      "▁dolay": 2301,
      "▁saptan": 2302,
      "aket": 2303,
      "iyi": 2304,
      "▁result": 2305,
      "bol": 2306,
      "formation": 2307,
      "▁savaş": 2308,
      "▁ot": 2309,
      "chool": 2310,
      "mıyor": 2311,
      "▁boş": 2312,
      "kın": 2313,
      "▁co": 2314,
      "uyordu": 2315,
      "emiz": 2316,
      "sı": 2317,
      "▁cev": 2318,
      "▁merkez": 2319,
      "üf": 2320,
      "emmel": 2321,
      "ult": 2322,
      "inizi": 2323,
      "▁levels": 2324,
      "▁sınır": 2325,
      "▁zar": 2326,
      "▁hastalık": 2327,
      "ırım": 2328,
      "ediği": 2329,
      "dem": 2330,
      "atist": 2331,
      "▁partic": 2332,
      "▁bez": 2333,
      "uvar": 2334,
      "▁sin": 2335,
      "▁Hast": 2336,
      "▁arkadaş": 2337,
      "ses": 2338,
      "ğında": 2339,
      "▁anlaş": 2340,
      "uld": 2341,
      "▁most": 2342,
      "▁Bak": 2343,
      "str": 2344,
      "aban": 2345,
      "▁teach": 2346,
      "fes": 2347,
      "▁Tan": 2348,
      "▁first": 2349,
      "▁mek": 2350,
      "▁no": 2351,
      "lardır": 2352,
      "▁Allah": 2353,
      "AS": 2354,
      "sın": 2355,
      "▁Par": 2356,
      "▁conc": 2357,
      "▁yorum": 2358,
      "▁one": 2359,
      "▁kargo": 2360,
      "▁?": 2361,
      "▁med": 2362,
      "iel": 2363,
      "▁İngiliz": 2364,
      "isel": 2365,
      "▁karşılaştır": 2366,
      "▁hük": 2367,
      "▁inf": 2368,
      "abı": 2369,
      "▁Daha": 2370,
      "▁saç": 2371,
      "EM": 2372,
      "▁ediyor": 2373,
      "▁kısa": 2374,
      "▁about": 2375,
      "▁haber": 2376,
      "▁öyle": 2377,
      "İN": 2378,
      "▁erkek": 2379,
      "▁its": 2380,
      "▁more": 2381,
      "IN": 2382,
      "uan": 2383,
      "▁.": 2384,
      "▁yas": 2385,
      "▁end": 2386,
      "ilere": 2387,
      "▁düşük": 2388,
      "▁dec": 2389,
      "▁od": 2390,
      "lenen": 2391,
      "tım": 2392,
      "estig": 2393,
      "▁telefon": 2394,
      "alth": 2395,
      "maları": 2396,
      "▁period": 2397,
      "▁ber": 2398,
      "ikleri": 2399,
      "▁etkin": 2400,
      "▁kişi": 2401,
      "▁kaldır": 2402,
      "▁Tr": 2403,
      "▁renk": 2404,
      "ilerini": 2405,
      "ple": 2406,
      "▁tedavi": 2407,
      "▁eski": 2408,
      "▁Kul": 2409,
      "▁mon": 2410,
      "ET": 2411,
      "ker": 2412,
      "kün": 2413,
      "▁pers": 2414,
      "▁relationship": 2415,
      "fac": 2416,
      "▁gönder": 2417,
      "low": 2418,
      "▁time": 2419,
      "▁değişik": 2420,
      "▁prov": 2421,
      "lıyor": 2422,
      "rat": 2423,
      "▁faktör": 2424,
      "▁yeniden": 2425,
      "▁ders": 2426,
      "ining": 2427,
      "▁vur": 2428,
      "AK": 2429,
      "sunuz": 2430,
      "▁Türkçe": 2431,
      "▁investig": 2432,
      "ES": 2433,
      "▁gül": 2434,
      "▁values": 2435,
      "tern": 2436,
      "▁pay": 2437,
      "masının": 2438,
      "ırken": 2439,
      "▁se": 2440,
      "ükemmel": 2441,
      "▁Ön": 2442,
      "▁etkisi": 2443,
      "wo": 2444,
      "▁yen": 2445,
      "ene": 2446,
      "hur": 2447,
      "▁struc": 2448,
      "▁Öl": 2449,
      "bilir": 2450,
      "▁Ev": 2451,
      "atif": 2452,
      "▁social": 2453,
      "ücü": 2454,
      "larıyla": 2455,
      "int": 2456,
      "▁literat": 2457,
      "▁toplam": 2458,
      "▁Osmanlı": 2459,
      "ication": 2460,
      "▁Wh": 2461,
      "imleri": 2462,
      "▁year": 2463,
      "yz": 2464,
      "▁St": 2465,
      "▁ir": 2466,
      "engin": 2467,
      "▁des": 2468,
      "meden": 2469,
      "▁yum": 2470,
      "dana": 2471,
      "▁sup": 2472,
      "▁dünya": 2473,
      "▁activ": 2474,
      "leyen": 2475,
      "▁tez": 2476,
      "▁konusunda": 2477,
      "imler": 2478,
      "▁cor": 2479,
      "▁sıcak": 2480,
      "▁comm": 2481,
      "tiği": 2482,
      "vur": 2483,
      "▁burada": 2484,
      "▁hesap": 2485,
      "▁kı": 2486,
      "▁öğretmen": 2487,
      "eceğini": 2488,
      "▁hüc": 2489,
      "▁kas": 2490,
      "▁they": 2491,
      "▁seçen": 2492,
      "▁sim": 2493,
      "ization": 2494,
      "▁ayar": 2495,
      "▁dal": 2496,
      "▁show": 2497,
      "▁examined": 2498,
      "▁uç": 2499,
      "mir": 2500,
      "▁olsun": 2501,
      "▁malz": 2502,
      "▁sav": 2503,
      "kanı": 2504,
      "▁ayrı": 2505,
      "▁kil": 2506,
      "▁pres": 2507,
      "▁(%": 2508,
      "be": 2509,
      "ree": 2510,
      "hangi": 2511,
      "aşa": 2512,
      "▁tat": 2513,
      "▁than": 2514,
      "itive": 2515,
      "▁ref": 2516,
      "ology": 2517,
      "▁sonucunda": 2518,
      "▁Uy": 2519,
      "▁Ah": 2520,
      "yet": 2521,
      "dığım": 2522,
      "madı": 2523,
      "▁our": 2524,
      "▁amacıyla": 2525,
      "obil": 2526,
      "▁rol": 2527,
      "▁av": 2528,
      "▁bunun": 2529,
      "laması": 2530,
      "esign": 2531,
      "▁oğ": 2532,
      "amaz": 2533,
      "An": 2534,
      "ektör": 2535,
      "▁obser": 2536,
      "▁istem": 2537,
      "▁gerçekten": 2538,
      "düğ": 2539,
      "▁İz": 2540,
      "yıl": 2541,
      "unc": 2542,
      "▁istatist": 2543,
      "gü": 2544,
      "▁meas": 2545,
      "▁inclu": 2546,
      "▁değiştir": 2547,
      "eğin": 2548,
      "▁ide": 2549,
      "▁müm": 2550,
      "▁tanım": 2551,
      "ucu": 2552,
      "ions": 2553,
      "▁post": 2554,
      "▁kullanılarak": 2555,
      "▁statistic": 2556,
      "▁ıs": 2557,
      "ates": 2558,
      "▁ifade": 2559,
      "form": 2560,
      "sib": 2561,
      "izm": 2562,
      "▁ün": 2563,
      "oğraf": 2564,
      "bn": 2565,
      "▁prima": 2566,
      "▁Res": 2567,
      "▁dep": 2568,
      "▁fakat": 2569,
      "ısında": 2570,
      "▁,": 2571,
      "OR": 2572,
      "ection": 2573,
      "▁enerj": 2574,
      "ried": 2575,
      "alama": 2576,
      "elerinin": 2577,
      "anlar": 2578,
      "▁çağ": 2579,
      "▁ec": 2580,
      ".,": 2581,
      "▁Hay": 2582,
      "ğinde": 2583,
      "luğ": 2584,
      "▁birkaç": 2585,
      "▁şimdi": 2586,
      "▁kötü": 2587,
      "ral": 2588,
      "ences": 2589,
      "abet": 2590,
      "ements": 2591,
      "▁film": 2592,
      "▁genç": 2593,
      "▁San": 2594,
      "▁mus": 2595,
      "▁çözüm": 2596,
      "▁veriler": 2597,
      "elerde": 2598,
      "cut": 2599,
      "▁Hal": 2600,
      "ograp": 2601,
      "▁mor": 2602,
      "▁effect": 2603,
      "▁bar": 2604,
      "luğu": 2605,
      "▁ayak": 2606,
      "lanmış": 2607,
      "ograf": 2608,
      "▁hist": 2609,
      "▁sanat": 2610,
      "▁serv": 2611,
      "▁muh": 2612,
      "duk": 2613,
      "ning": 2614,
      "eksiyon": 2615,
      "▁ann": 2616,
      "▁hasta": 2617,
      "▁çünkü": 2618,
      "▁sayf": 2619,
      "▁vüc": 2620,
      "üncü": 2621,
      "yl": 2622,
      "▁tal": 2623,
      "▁ilet": 2624,
      "▁sk": 2625,
      "▁indir": 2626,
      "din": 2627,
      "arken": 2628,
      "▁so": 2629,
      "▁Turkish": 2630,
      "▁çalı": 2631,
      "▁kendini": 2632,
      "▁dağ": 2633,
      "say": 2634,
      "EK": 2635,
      "▁his": 2636,
      "▁Han": 2637,
      "▁kıy": 2638,
      "▁studies": 2639,
      "▁çar": 2640,
      "▁rağ": 2641,
      "▁seviy": 2642,
      "arlı": 2643,
      "uman": 2644,
      "▁teşekkürler": 2645,
      "▁etkili": 2646,
      "▁adet": 2647,
      "err": 2648,
      "▁iler": 2649,
      "▁zengin": 2650,
      "lamalar": 2651,
      "ized": 2652,
      "els": 2653,
      "▁kuş": 2654,
      "ersiz": 2655,
      "▁kullanılmıştır": 2656,
      "▁Çalışma": 2657,
      "EL": 2658,
      "rop": 2659,
      "üsü": 2660,
      "atur": 2661,
      "▁bab": 2662,
      "▁kut": 2663,
      "▁vak": 2664,
      "su": 2665,
      "▁beş": 2666,
      "▁Kad": 2667,
      "▁yapılmıştır": 2668,
      "▁ortam": 2669,
      "arlar": 2670,
      "▁ağr": 2671,
      "▁yanında": 2672,
      "hal": 2673,
      "▁coun": 2674,
      "stit": 2675,
      "▁education": 2676,
      "ılma": 2677,
      "ülen": 2678,
      "▁ölüm": 2679,
      "▁analyz": 2680,
      "lıkla": 2681,
      "ces": 2682,
      "▁başla": 2683,
      "SS": 2684,
      "▁kah": 2685,
      "ıda": 2686,
      "▁çıkan": 2687,
      "▁araç": 2688,
      "▁terms": 2689,
      "ku": 2690,
      "▁boyunca": 2691,
      "▁artır": 2692,
      "ilt": 2693,
      "aten": 2694,
      "asyonu": 2695,
      "▁kaf": 2696,
      "▁rağmen": 2697,
      "▁mümkün": 2698,
      "▁hedef": 2699,
      "ental": 2700,
      "▁analizi": 2701,
      "▁/": 2702,
      "▁yılında": 2703,
      "ukuk": 2704,
      "▁elekt": 2705,
      "dından": 2706,
      "▁after": 2707,
      "▁değildir": 2708,
      "ily": 2709,
      "▁Met": 2710,
      "ency": 2711,
      "iyeti": 2712,
      "adem": 2713,
      "air": 2714,
      "▁gar": 2715,
      "▁rev": 2716,
      "ield": 2717,
      "▁total": 2718,
      "▁methods": 2719,
      "▁particip": 2720,
      "Bir": 2721,
      "▁normal": 2722,
      "▁alış": 2723,
      "ating": 2724,
      "ges": 2725,
      "▁according": 2726,
      "▁design": 2727,
      "▁op": 2728,
      "elt": 2729,
      "▁derin": 2730,
      "▁factor": 2731,
      "▁will": 2732,
      "makta": 2733,
      "▁po": 2734,
      "ırı": 2735,
      "▁yardımcı": 2736,
      "▁Ad": 2737,
      "▁such": 2738,
      "▁size": 2739,
      "ower": 2740,
      "▁tip": 2741,
      "▁olsa": 2742,
      "uyu": 2743,
      "▁aşağı": 2744,
      "▁yaşa": 2745,
      "vir": 2746,
      "▁bağlan": 2747,
      "temi": 2748,
      "▁Fakat": 2749,
      "▁hoş": 2750,
      "ood": 2751,
      "▁hafif": 2752,
      "ever": 2753,
      "▁içerisinde": 2754,
      "▁aff": 2755,
      "deş": 2756,
      "▁yoğun": 2757,
      "sed": 2758,
      "gular": 2759,
      "▁sıra": 2760,
      "▁giy": 2761,
      "eng": 2762,
      "▁okul": 2763,
      "▁adı": 2764,
      "cep": 2765,
      "▁men": 2766,
      "iden": 2767,
      "lilik": 2768,
      "arac": 2769,
      "usal": 2770,
      "ğın": 2771,
      "iet": 2772,
      "sanız": 2773,
      "▁diz": 2774,
      "▁two": 2775,
      "▁demek": 2776,
      "ole": 2777,
      "▁sey": 2778,
      "▁ikinci": 2779,
      "lis": 2780,
      "▁üretim": 2781,
      "xt": 2782,
      "▁süreç": 2783,
      "etic": 2784,
      "ilmek": 2785,
      "▁tamam": 2786,
      "iir": 2787,
      "▁sonrası": 2788,
      "lığını": 2789,
      "▁siyas": 2790,
      "sil": 2791,
      "▁ass": 2792,
      "▁çalışan": 2793,
      "ift": 2794,
      "âm": 2795,
      "▁thesis": 2796,
      "▁düşünc": 2797,
      "▁ürünü": 2798,
      "▁Turkey": 2799,
      "▁Sonra": 2800,
      "▁Yön": 2801,
      "▁order": 2802,
      "ali": 2803,
      "▁yere": 2804,
      "▁treat": 2805,
      "▁Dün": 2806,
      "▁herhangi": 2807,
      "▁söylem": 2808,
      "▁bes": 2809,
      "▁measur": 2810,
      "▁farklılık": 2811,
      "▁davranış": 2812,
      "▁dört": 2813,
      "eks": 2814,
      "▁Bun": 2815,
      "ance": 2816,
      "▁gereken": 2817,
      "▁yani": 2818,
      "day": 2819,
      "elere": 2820,
      "ınca": 2821,
      "▁Di": 2822,
      "port": 2823,
      "▁fayd": 2824,
      "üştü": 2825,
      "lied": 2826,
      "▁diş": 2827,
      "▁teh": 2828,
      "▁difference": 2829,
      "âb": 2830,
      "▁görül": 2831,
      "▁ilişkin": 2832,
      "ipar": 2833,
      "anlı": 2834,
      "esinden": 2835,
      "any": 2836,
      "▁Key": 2837,
      "▁spec": 2838,
      "ilmektedir": 2839,
      "▁verdi": 2840,
      "▁Sc": 2841,
      "▁yık": 2842,
      "ples": 2843,
      "▁new": 2844,
      "müş": 2845,
      "▁ilişki": 2846,
      "emin": 2847,
      "baş": 2848,
      "▁fiz": 2849,
      "muştu": 2850,
      "▁İlk": 2851,
      "▁use": 2852,
      "▁ur": 2853,
      "ery": 2854,
      "▁sebep": 2855,
      "onk": 2856,
      "▁tur": 2857,
      "▁red": 2858,
      "▁school": 2859,
      "▁II": 2860,
      "taj": 2861,
      "▁into": 2862,
      "▁nokt": 2863,
      "İR": 2864,
      "ater": 2865,
      "▁azal": 2866,
      "▁Top": 2867,
      "OS": 2868,
      "▁ihtiyaç": 2869,
      "ks": 2870,
      "asıyla": 2871,
      "▁stand": 2872,
      "▁yüksel": 2873,
      "▁uygulama": 2874,
      "oman": 2875,
      "aliyet": 2876,
      "▁rep": 2877,
      "▁indi": 2878,
      "ina": 2879,
      "lass": 2880,
      "▁life": 2881,
      "▁dak": 2882,
      "▁‘": 2883,
      "▁oyn": 2884,
      "▁cih": 2885,
      "▁effects": 2886,
      "urt": 2887,
      "▁tra": 2888,
      "umuz": 2889,
      "▁dönüş": 2890,
      "▁ta": 2891,
      "rim": 2892,
      "ışlı": 2893,
      "▁hüküm": 2894,
      "oğu": 2895,
      "▁özellikleri": 2896,
      "▁sok": 2897,
      "▁performans": 2898,
      "▁yöntemi": 2899,
      "▁anda": 2900,
      "EZ": 2901,
      "landı": 2902,
      "▁başvur": 2903,
      "▁pur": 2904,
      "üyük": 2905,
      "▁Bul": 2906,
      "ook": 2907,
      "ective": 2908,
      "▁takip": 2909,
      "elerini": 2910,
      "imli": 2911,
      "▁exper": 2912,
      "▁kalk": 2913,
      "esiyle": 2914,
      "AY": 2915,
      "▁kurum": 2916,
      "▁health": 2917,
      "▁tep": 2918,
      "▁fik": 2919,
      "▁Uz": 2920,
      "dar": 2921,
      "▁Dört": 2922,
      "manız": 2923,
      "eyin": 2924,
      "▁itib": 2925,
      "▁Hem": 2926,
      "avi": 2927,
      "nde": 2928,
      "▁disc": 2929,
      "▁çiz": 2930,
      "▁cal": 2931,
      "cept": 2932,
      "▁benzer": 2933,
      "▁proj": 2934,
      "▁observed": 2935,
      "▁Sağ": 2936,
      "▁appl": 2937,
      "▁dışında": 2938,
      "▁ruh": 2939,
      "▁Eğ": 2940,
      "ha": 2941,
      "▁ner": 2942,
      "▁istediğ": 2943,
      "▁mevcut": 2944,
      "uvvet": 2945,
      "▁adım": 2946,
      "▁cok": 2947,
      "▁yüzyıl": 2948,
      "▁gaz": 2949,
      "▁dair": 2950,
      "▁suç": 2951,
      "▁fin": 2952,
      "▁tart": 2953,
      "▁Gör": 2954,
      "▁oper": 2955,
      "ox": 2956,
      "▁kir": 2957,
      "omen": 2958,
      "▁Muh": 2959,
      "▁başarılı": 2960,
      "ıldığı": 2961,
      "▁bağım": 2962,
      "arası": 2963,
      "ON": 2964,
      "ilerek": 2965,
      "ability": 2966,
      "▁dist": 2967,
      "▁konusu": 2968,
      "▁paket": 2969,
      "▁mis": 2970,
      "▁bildir": 2971,
      "emez": 2972,
      "▁age": 2973,
      "▁Gel": 2974,
      "eop": 2975,
      "▁gec": 2976,
      "▁Araştırma": 2977,
      "▁Con": 2978,
      "rel": 2979,
      "ğa": 2980,
      "tural": 2981,
      "meyi": 2982,
      "▁ey": 2983,
      "▁üzerinden": 2984,
      "▁pop": 2985,
      "▁Kelimeler": 2986,
      "▁ah": 2987,
      "▁applied": 2988,
      "▁sürdür": 2989,
      "▁Nasıl": 2990,
      "▁Ölç": 2991,
      "▁soru": 2992,
      "▁veri": 2993,
      "▁genellikle": 2994,
      "ozit": 2995,
      "▁Ünivers": 2996,
      "▁Mar": 2997,
      "▁anlay": 2998,
      "üle": 2999,
      "▁Sonuç": 3000,
      "alet": 3001,
      "▁işlet": 3002,
      "▁taşı": 3003,
      "▁both": 3004,
      "▁Q": 3005,
      "▁doğal": 3006,
      "▁beğ": 3007,
      "dam": 3008,
      "▁compared": 3009,
      "üler": 3010,
      "ekler": 3011,
      "▁mar": 3012,
      "▁Avrup": 3013,
      "▁typ": 3014,
      "▁child": 3015,
      "▁Anahtar": 3016,
      "act": 3017,
      "▁öldür": 3018,
      "▁fol": 3019,
      "▁cul": 3020,
      "ilerine": 3021,
      "▁Ser": 3022,
      "now": 3023,
      "alarında": 3024,
      "▁giz": 3025,
      "▁kalitesi": 3026,
      "▁açı": 3027,
      "▁puan": 3028,
      "umhur": 3029,
      "▁Kan": 3030,
      "▁içerik": 3031,
      "▁ent": 3032,
      "▁online": 3033,
      "▁mükemmel": 3034,
      "iddet": 3035,
      "alım": 3036,
      "enti": 3037,
      "▁made": 3038,
      "▁Em": 3039,
      "▁spor": 3040,
      "ideo": 3041,
      "▁incelenmiştir": 3042,
      "▁find": 3043,
      "▁karak": 3044,
      "▁hastalı": 3045,
      "▁koşul": 3046,
      "▁çıktı": 3047,
      "▁strate": 3048,
      "üb": 3049,
      "▁içeri": 3050,
      "▁Ses": 3051,
      "vidu": 3052,
      "▁unut": 3053,
      "ator": 3054,
      "▁geçen": 3055,
      "▁sayesinde": 3056,
      "▁determine": 3057,
      "ii": 3058,
      "şı": 3059,
      "dent": 3060,
      "▁sonunda": 3061,
      "ağa": 3062,
      "▁şeyi": 3063,
      "▁Ver": 3064,
      "üper": 3065,
      "dro": 3066,
      "”,": 3067,
      "bil": 3068,
      "▁para": 3069,
      "▁addition": 3070,
      "▁kans": 3071,
      "luluk": 3072,
      "ness": 3073,
      "amp": 3074,
      "▁Kap": 3075,
      "eter": 3076,
      "▁information": 3077,
      "▁Rus": 3078,
      "▁İbn": 3079,
      "iliği": 3080,
      "▁durumu": 3081,
      "▁nedir": 3082,
      "▁Mah": 3083,
      "▁plat": 3084,
      "iki": 3085,
      "▁bor": 3086,
      "▁um": 3087,
      "▁değişken": 3088,
      "▁For": 3089,
      "▁derec": 3090,
      "AD": 3091,
      "▁cevap": 3092,
      "rada": 3093,
      "ülü": 3094,
      "cük": 3095,
      "▁second": 3096,
      "▁tasarım": 3097,
      "▁halk": 3098,
      "rans": 3099,
      "▁ziy": 3100,
      "▁oluşan": 3101,
      "▁neg": 3102,
      "▁istatistiksel": 3103,
      "lüğü": 3104,
      "▁beraber": 3105,
      "▁işaret": 3106,
      "sur": 3107,
      "▁int": 3108,
      "▁bölümde": 3109,
      "▁yalnızca": 3110,
      "▁Böyle": 3111,
      "▁ana": 3112,
      "ılmaz": 3113,
      "onksiyon": 3114,
      "son": 3115,
      "medi": 3116,
      "▁ekonomik": 3117,
      "rough": 3118,
      "fi": 3119,
      "esel": 3120,
      "▁Yaz": 3121,
      "▁belirlenmiştir": 3122,
      "▁Pol": 3123,
      "ulation": 3124,
      "▁İngilizce": 3125,
      "▁charac": 3126,
      "!\"": 3127,
      "▁faaliyet": 3128,
      "▁şaş": 3129,
      "lenme": 3130,
      "hic": 3131,
      "▁gerekir": 3132,
      "▁gece": 3133,
      "ani": 3134,
      "iliğ": 3135,
      "oma": 3136,
      "▁meydana": 3137,
      "osy": 3138,
      "▁müz": 3139,
      "▁treatment": 3140,
      "ola": 3141,
      "▁ind": 3142,
      "bi": 3143,
      "düğü": 3144,
      "ısını": 3145,
      "▁Yar": 3146,
      "vey": 3147,
      "fet": 3148,
      "menin": 3149,
      "lerdir": 3150,
      "▁Bay": 3151,
      "▁There": 3152,
      "gr": 3153,
      "▁dahil": 3154,
      "▁engel": 3155,
      "▁tartış": 3156,
      "fak": 3157,
      "▁tık": 3158,
      "▁üzerindeki": 3159,
      "ipariş": 3160,
      "▁mean": 3161,
      "▁Yeni": 3162,
      "▁nedenle": 3163,
      "dıkları": 3164,
      "▁hafta": 3165,
      "▁oluyor": 3166,
      "nS": 3167,
      "mesine": 3168,
      "▁Sor": 3169,
      "▁sırasında": 3170,
      "ows": 3171,
      "ırdı": 3172,
      "▁ayrıca": 3173,
      "▁Ol": 3174,
      "▁Kay": 3175,
      "▁çoc": 3176,
      "▁pot": 3177,
      "ısıyla": 3178,
      "▁harika": 3179,
      "▁development": 3180,
      "▁yarar": 3181,
      "▁belli": 3182,
      "▁yaşan": 3183,
      "▁Kullan": 3184,
      "▁yerde": 3185,
      "▁Biz": 3186,
      "▁nedeniyle": 3187,
      "tih": 3188,
      "elerinde": 3189,
      "viron": 3190,
      "▁econom": 3191,
      "bu": 3192,
      "▁gerekli": 3193,
      "▁yoktu": 3194,
      "▁higher": 3195,
      "ope": 3196,
      "▁arttır": 3197,
      "▁years": 3198,
      "▁countr": 3199,
      "▁kem": 3200,
      "▁yayın": 3201,
      "ties": 3202,
      "ultan": 3203,
      "ann": 3204,
      "▁halde": 3205,
      "isay": 3206,
      "ısına": 3207,
      "▁individu": 3208,
      "▁ileri": 3209,
      "▁yönetim": 3210,
      "oğlu": 3211,
      "▁don": 3212,
      "lığın": 3213,
      "zer": 3214,
      "▁Çünkü": 3215,
      "urada": 3216,
      "▁ardından": 3217,
      "▁experim": 3218,
      "▁subj": 3219,
      "tional": 3220,
      "malıdır": 3221,
      "▁şekl": 3222,
      "▁Ör": 3223,
      "▁yapan": 3224,
      "▁del": 3225,
      "▁est": 3226,
      "▁kent": 3227,
      "AM": 3228,
      "▁milyon": 3229,
      "anag": 3230,
      "ane": 3231,
      "▁itibar": 3232,
      "şam": 3233,
      "ould": 3234,
      "▁toprak": 3235,
      "▁bilgiler": 3236,
      "▁politik": 3237,
      ".)": 3238,
      "adi": 3239,
      "▁Üç": 3240,
      "Ben": 3241,
      "ke": 3242,
      "alarının": 3243,
      "ants": 3244,
      "▁ail": 3245,
      "oh": 3246,
      "UR": 3247,
      "▁main": 3248,
      "eyle": 3249,
      "▁Çocuk": 3250,
      "▁bekl": 3251,
      "▁person": 3252,
      "▁soğ": 3253,
      "tesi": 3254,
      "▁Avrupa": 3255,
      "▁güçlü": 3256,
      "▁collec": 3257,
      "▁kesinlikle": 3258,
      "▁rek": 3259,
      "▁almak": 3260,
      "▁hatır": 3261,
      "▁bilim": 3262,
      "▁biy": 3263,
      "ases": 3264,
      "▁kuvvet": 3265,
      "sat": 3266,
      "adan": 3267,
      "asal": 3268,
      "▁vaz": 3269,
      "▁acı": 3270,
      "▁character": 3271,
      "acağı": 3272,
      "▁some": 3273,
      "▁Gaz": 3274,
      "▁cent": 3275,
      "ğını": 3276,
      "ange": 3277,
      "işti": 3278,
      "▁istiyor": 3279,
      "lanması": 3280,
      "▁them": 3281,
      "daş": 3282,
      "▁hangi": 3283,
      "ulmuştur": 3284,
      "LI": 3285,
      "edik": 3286,
      "larım": 3287,
      "ılmaktadır": 3288,
      "ğim": 3289,
      "▁söyledi": 3290,
      "▁kullanımı": 3291,
      "ERK": 3292,
      "▁mez": 3293,
      "▁edeb": 3294,
      "▁bulunmuştur": 3295,
      "▁Öğr": 3296,
      "▁grubu": 3297,
      "ld": 3298,
      "ştım": 3299,
      "▁consist": 3300,
      "essiz": 3301,
      "ât": 3302,
      "▁during": 3303,
      "▁teachers": 3304,
      "▁olmadığı": 3305,
      "mesini": 3306,
      "sak": 3307,
      "▁evaluated": 3308,
      "▁sem": 3309,
      "▁prof": 3310,
      "▁through": 3311,
      "endim": 3312,
      "▁AB": 3313,
      "▁sektör": 3314,
      "eyn": 3315,
      "mam": 3316,
      "AŞ": 3317,
      "▁malzem": 3318,
      "imum": 3319,
      "▁götür": 3320,
      "gam": 3321,
      "▁anti": 3322,
      "▁ettiği": 3323,
      "arım": 3324,
      "lâm": 3325,
      "▁şeh": 3326,
      "▁conduc": 3327,
      "ümü": 3328,
      "▁eksik": 3329,
      "▁cid": 3330,
      "▁psik": 3331,
      "▁dost": 3332,
      "▁ins": 3333,
      "▁sürekli": 3334,
      "▁zorunda": 3335,
      "▁aldı": 3336,
      "abancı": 3337,
      "larınız": 3338,
      "fore": 3339,
      "▁sonucu": 3340,
      "atik": 3341,
      "▁uğr": 3342,
      "▁onları": 3343,
      "isyon": 3344,
      "lerdi": 3345,
      "ack": 3346,
      "▁Devlet": 3347,
      "ecektir": 3348,
      "imize": 3349,
      "anlık": 3350,
      "▁eg": 3351,
      "otor": 3352,
      "▁sağlıklı": 3353,
      "▁şar": 3354,
      "▁değildi": 3355,
      "ublic": 3356,
      "▁piş": 3357,
      "▁baz": 3358,
      "▁caus": 3359,
      "▁Hat": 3360,
      "▁mec": 3361,
      "▁giv": 3362,
      "ıştır": 3363,
      "▁Büyük": 3364,
      "üme": 3365,
      "ores": 3366,
      "lanma": 3367,
      "▁tit": 3368,
      "oca": 3369,
      "evi": 3370,
      "lenmiştir": 3371,
      "▁yapmak": 3372,
      "▁hale": 3373,
      "▁beri": 3374,
      "ual": 3375,
      "▁ulaştı": 3376,
      "cr": 3377,
      "ting": 3378,
      "▁incelenmesi": 3379,
      "▁cam": 3380,
      "▁environ": 3381,
      "▁Paşa": 3382,
      "▁aktiv": 3383,
      "▁lan": 3384,
      "!”": 3385,
      "alara": 3386,
      "▁dar": 3387,
      "▁dolayı": 3388,
      "ST": 3389,
      "▁bizim": 3390,
      "?\\": 3391,
      "iyah": 3392,
      "▁but": 3393,
      "fa": 3394,
      "▁yüzden": 3395,
      "▁madd": 3396,
      "▁materi": 3397,
      "düm": 3398,
      "▁düşünüyor": 3399,
      "larımız": 3400,
      "▁medi": 3401,
      "▁Pr": 3402,
      "▁ef": 3403,
      "ink": 3404,
      "ml": 3405,
      "▁edin": 3406,
      "▁Dr": 3407,
      "pek": 3408,
      "AB": 3409,
      "▁oku": 3410,
      "▁appro": 3411,
      "sy": 3412,
      "▁yavaş": 3413,
      "▁müc": 3414,
      "▁Fiyat": 3415,
      "▁hukuk": 3416,
      "▁çab": 3417,
      "▁görmek": 3418,
      "▁sordu": 3419,
      "lüğ": 3420,
      "orld": 3421,
      "▁parametr": 3422,
      "▁ques": 3423,
      "▁Oy": 3424,
      "▁olmuştur": 3425,
      "▁giriş": 3426,
      "▁senin": 3427,
      "ender": 3428,
      "▁cont": 3429,
      "▁number": 3430,
      "▁ih": 3431,
      "kil": 3432,
      "muz": 3433,
      "▁gider": 3434,
      "▁fot": 3435,
      "▁Et": 3436,
      "lev": 3437,
      "▁değerleri": 3438,
      "▁purp": 3439,
      "▁elime": 3440,
      "lış": 3441,
      "▁İnsan": 3442,
      "▁testi": 3443,
      "ERKEZ": 3444,
      "aşt": 3445,
      "▁Teş": 3446,
      "▁ateş": 3447,
      "▁katkı": 3448,
      "▁İzmir": 3449,
      "▁ister": 3450,
      "▁fe": 3451,
      "Al": 3452,
      "iyel": 3453,
      "▁beyaz": 3454,
      "iğ": 3455,
      "▁yeterli": 3456,
      "▁mekan": 3457,
      "tein": 3458,
      "▁asker": 3459,
      "▁samples": 3460,
      "geç": 3461,
      "IR": 3462,
      "udur": 3463,
      "errah": 3464,
      "▁increase": 3465,
      "▁ilaç": 3466,
      "agn": 3467,
      "▁Üniversitesi": 3468,
      "▁Ali": 3469,
      "▁Sözlük": 3470,
      "▁kapsamında": 3471,
      "▁üy": 3472,
      "irket": 3473,
      "▁Böl": 3474,
      "▁sağlar": 3475,
      "▁vit": 3476,
      "ücret": 3477,
      "▁many": 3478,
      "▁şiddet": 3479,
      "LAR": 3480,
      "umsuz": 3481,
      "▁know": 3482,
      "▁yaygın": 3483,
      "lında": 3484,
      "▁sayısı": 3485,
      "▁fonksiyon": 3486,
      "LER": 3487,
      "▁ediyorum": 3488,
      "▁şeyler": 3489,
      "ısının": 3490,
      "ga": 3491,
      "indows": 3492,
      "oid": 3493,
      "üyle": 3494,
      "▁hey": 3495,
      "▁sağlay": 3496,
      "▁condition": 3497,
      "▁chang": 3498,
      "▁yem": 3499,
      "▁MERKEZ": 3500,
      "liğini": 3501,
      "▁başına": 3502,
      "yonel": 3503,
      "▁karakter": 3504,
      "osis": 3505,
      "▁statistically": 3506,
      "▁Mü": 3507,
      "▁dam": 3508,
      "▁modern": 3509,
      "▁çat": 3510,
      "enüz": 3511,
      "▁Haz": 3512,
      "▁enerji": 3513,
      "▁olabil": 3514,
      "▁platform": 3515,
      "erçev": 3516,
      "▁hisset": 3517,
      "▁baktı": 3518,
      "▁yemek": 3519,
      "▁Frans": 3520,
      "eople": 3521,
      "▁ic": 3522,
      "▁enf": 3523,
      "eal": 3524,
      "▁Sel": 3525,
      "▁köy": 3526,
      "▁need": 3527,
      "ments": 3528,
      "▁arac": 3529,
      "▁kullanışlı": 3530,
      "▁geliyor": 3531,
      "▁contr": 3532,
      "▁becer": 3533,
      "▁Gerç": 3534,
      "▁tic": 3535,
      "▁prot": 3536,
      "teki": 3537,
      "ason": 3538,
      "▁paylaş": 3539,
      "ail": 3540,
      "▁tarz": 3541,
      "▁lim": 3542,
      "▁sağlam": 3543,
      "İY": 3544,
      "▁Amer": 3545,
      "eyse": 3546,
      "mızı": 3547,
      "▁ışık": 3548,
      "ba": 3549,
      "▁saldır": 3550,
      "▁izin": 3551,
      "▁günlük": 3552,
      "▁metin": 3553,
      "▁veren": 3554,
      "âz": 3555,
      "ımda": 3556,
      "▁Yaş": 3557,
      "▁resp": 3558,
      "▁görüntü": 3559,
      "▁cez": 3560,
      "▁cins": 3561,
      "▁içine": 3562,
      "▁idi": 3563,
      "sınız": 3564,
      "▁Acc": 3565,
      "▁consid": 3566,
      "▁çarp": 3567,
      "▁saf": 3568,
      "▁Kız": 3569,
      "▁önünde": 3570,
      "struc": 3571,
      "▁ücret": 3572,
      "▁uc": 3573,
      "▁att": 3574,
      "▁yans": 3575,
      "▁techn": 3576,
      "▁Den": 3577,
      "▁şiir": 3578,
      "▁değişiklik": 3579,
      "şık": 3580,
      "eceğim": 3581,
      "imizi": 3582,
      "▁dise": 3583,
      "elerine": 3584,
      "lendi": 3585,
      "▁yazı": 3586,
      "▁ortalama": 3587,
      "▁şehir": 3588,
      "▁edilir": 3589,
      "▁belki": 3590,
      "▁Eş": 3591,
      "astik": 3592,
      "idi": 3593,
      "▁Kat": 3594,
      "▁Eğer": 3595,
      "▁hik": 3596,
      "▁tüket": 3597,
      "adaki": 3598,
      "▁akıl": 3599,
      "The": 3600,
      "nK": 3601,
      "▁başarı": 3602,
      "▁depr": 3603,
      "--": 3604,
      "AP": 3605,
      "▁olmaz": 3606,
      "▁Cumhur": 3607,
      "▁hava": 3608,
      "▁Ef": 3609,
      "▁kapı": 3610,
      "ert": 3611,
      "▁buna": 3612,
      "▁detay": 3613,
      "adolu": 3614,
      "eters": 3615,
      "▁kardeş": 3616,
      "ukarı": 3617,
      "amin": 3618,
      "gal": 3619,
      "▁sert": 3620,
      "dük": 3621,
      "▁zaten": 3622,
      "▁fil": 3623,
      "▁kalan": 3624,
      "▁Tarih": 3625,
      "▁bat": 3626,
      "▁mobil": 3627,
      "▁Göz": 3628,
      "ady": 3629,
      "osed": 3630,
      "▁verilen": 3631,
      "ometr": 3632,
      "In": 3633,
      "▁hayvan": 3634,
      "▁sistemi": 3635,
      "▁bay": 3636,
      "fesyonel": 3637,
      "▁nes": 3638,
      "▁miktar": 3639,
      "▁class": 3640,
      "ategor": 3641,
      "its": 3642,
      ".-": 3643,
      "▁görülmüştür": 3644,
      "tiğini": 3645,
      "▁başk": 3646,
      "▁cihaz": 3647,
      "▁söyley": 3648,
      "▁duyg": 3649,
      "▁manag": 3650,
      "▁Bas": 3651,
      "iyoruz": 3652,
      "▁Mil": 3653,
      "▁environment": 3654,
      "▁Güzel": 3655,
      "üms": 3656,
      "▁derece": 3657,
      "▁sipariş": 3658,
      "ildiği": 3659,
      "▁kendine": 3660,
      "▁cin": 3661,
      "▁Ölçeği": 3662,
      "▁oranı": 3663,
      "▁çerçev": 3664,
      "▁sözcük": 3665,
      "▁bebek": 3666,
      "lish": 3667,
      "elikle": 3668,
      "▁problems": 3669,
      "▁Kit": 3670,
      "meyen": 3671,
      "▁Özellikle": 3672,
      "▁factors": 3673,
      "mayın": 3674,
      "iety": 3675,
      "▁literature": 3676,
      "ace": 3677,
      "rin": 3678,
      "▁Sesli": 3679,
      "▁beh": 3680,
      "▁olmuş": 3681,
      "▁SP": 3682,
      "▁kısm": 3683,
      "und": 3684,
      "▁based": 3685,
      "▁biçimde": 3686,
      "asından": 3687,
      "ılımcı": 3688,
      "▁İşte": 3689,
      "▁present": 3690,
      "bin": 3691,
      "▁Is": 3692,
      "ılıyor": 3693,
      "UN": 3694,
      "cul": 3695,
      "▁fen": 3696,
      "▁yanıt": 3697,
      "▁yürüt": 3698,
      "▁may": 3699,
      "▁func": 3700,
      "▁cur": 3701,
      "▁sebeb": 3702,
      "▁yaptığı": 3703,
      "▁Mod": 3704,
      "▁Kadın": 3705,
      "▁organiz": 3706,
      "▁Tüm": 3707,
      "acaktır": 3708,
      "▁teşekkür": 3709,
      "▁loc": 3710,
      "org": 3711,
      "▁oto": 3712,
      "lenmiş": 3713,
      "undaki": 3714,
      "▁Scale": 3715,
      "ics": 3716,
      "lüm": 3717,
      "▁oda": 3718,
      "lacağ": 3719,
      "▁hücr": 3720,
      "▁positive": 3721,
      "cer": 3722,
      "▁pla": 3723,
      "▁developed": 3724,
      "lığa": 3725,
      "▁significantly": 3726,
      "▁onların": 3727,
      "▁increased": 3728,
      "gür": 3729,
      "▁Mal": 3730,
      "▁sef": 3731,
      "▁kullanıyorum": 3732,
      "▁Hep": 3733,
      "▁field": 3734,
      "▁Med": 3735,
      "▁durumda": 3736,
      "▁alma": 3737,
      "▁soy": 3738,
      "atan": 3739,
      "mey": 3740,
      "▁şart": 3741,
      "ifi": 3742,
      "▁deniz": 3743,
      "▁çalışmanın": 3744,
      "AH": 3745,
      "old": 3746,
      "ırt": 3747,
      "▁over": 3748,
      "ergy": 3749,
      "abilecek": 3750,
      "▁sana": 3751,
      "▁canlı": 3752,
      "▁günümüz": 3753,
      "iminin": 3754,
      "nda": 3755,
      "▁haline": 3756,
      "lenmesi": 3757,
      "▁sessiz": 3758,
      "nB": 3759,
      "▁ham": 3760,
      "anıyor": 3761,
      "▁people": 3762,
      "▁children": 3763,
      "ümle": 3764,
      "ature": 3765,
      "▁kurt": 3766,
      "▁within": 3767,
      "▁vi": 3768,
      "▁önemlidir": 3769,
      "sen": 3770,
      "ough": 3771,
      "tiğ": 3772,
      "▁gez": 3773,
      "▁Alman": 3774,
      "▁quality": 3775,
      "▁ep": 3776,
      "▁Aynı": 3777,
      "▁set": 3778,
      "ou": 3779,
      "▁edilmiş": 3780,
      "▁halinde": 3781,
      "▁eğit": 3782,
      "ayın": 3783,
      "▁Ok": 3784,
      "ıyı": 3785,
      "▁kendisine": 3786,
      "▁teslim": 3787,
      "ij": 3788,
      "ass": 3789,
      "▁edilmesi": 3790,
      "diler": 3791,
      "▁Am": 3792,
      "▁birden": 3793,
      "▁bakış": 3794,
      "▁According": 3795,
      "gar": 3796,
      "▁etmiş": 3797,
      "▁kullanıcı": 3798,
      "▁value": 3799,
      "LE": 3800,
      "que": 3801,
      "▁Dur": 3802,
      "İM": 3803,
      "▁Tanrı": 3804,
      "▁uzman": 3805,
      "istics": 3806,
      "▁carried": 3807,
      "▁fre": 3808,
      "▁tarihi": 3809,
      "▁ideal": 3810,
      "▁mg": 3811,
      "IM": 3812,
      "acağım": 3813,
      "▁teknik": 3814,
      "yn": 3815,
      "▁kayb": 3816,
      "▁proper": 3817,
      "▁keş": 3818,
      "▁seni": 3819,
      "▁türlü": 3820,
      "\",": 3821,
      "▁kims": 3822,
      "eygam": 3823,
      "▁Yüz": 3824,
      "tively": 3825,
      "▁beden": 3826,
      "ution": 3827,
      "▁Anadolu": 3828,
      "▁muht": 3829,
      "leşme": 3830,
      "▁ederek": 3831,
      "acağını": 3832,
      "operat": 3833,
      "▁analyzed": 3834,
      "▁dakika": 3835,
      "▁doktor": 3836,
      "ladığı": 3837,
      "miyor": 3838,
      "unan": 3839,
      "▁kuru": 3840,
      "yum": 3841,
      "lıklı": 3842,
      "▁olmas": 3843,
      "▁makin": 3844,
      "▁investigated": 3845,
      "▁bize": 3846,
      "üğ": 3847,
      "▁follow": 3848,
      "lararası": 3849,
      "▁tamamen": 3850,
      "▁verir": 3851,
      "ploy": 3852,
      "▁conducted": 3853,
      "▁sek": 3854,
      "▁müşt": 3855,
      "▁polit": 3856,
      "▁decreas": 3857,
      "ılığı": 3858,
      "▁yüzey": 3859,
      "▁günü": 3860,
      "ury": 3861,
      "▁Şimdi": 3862,
      "laşma": 3863,
      "lor": 3864,
      "▁yaklaşım": 3865,
      "OV": 3866,
      "lamaya": 3867,
      "amı": 3868,
      "alarını": 3869,
      "▁structure": 3870,
      "▁while": 3871,
      "▁Tem": 3872,
      "ath": 3873,
      "ây": 3874,
      "▁findings": 3875,
      "siburada": 3876,
      "▁Eb": 3877,
      "▁Kend": 3878,
      "ozitif": 3879,
      "▁Abd": 3880,
      "▁İki": 3881,
      "lanır": 3882,
      "elsef": 3883,
      "ration": 3884,
      "▁hastaların": 3885,
      "▁purpose": 3886,
      "▁Ed": 3887,
      "▁zarar": 3888,
      "ekleri": 3889,
      "veriş": 3890,
      "▁Sp": 3891,
      "▁Dünya": 3892,
      "ward": 3893,
      "▁given": 3894,
      "lamaz": 3895,
      "layarak": 3896,
      "▁alınan": 3897,
      "▁inş": 3898,
      "▁sonuçlar": 3899,
      "▁ışı": 3900,
      "▁azalt": 3901,
      "▁satın": 3902,
      "▁güc": 3903,
      "▁sayı": 3904,
      "▁bileş": 3905,
      "▁orada": 3906,
      "▁rahatsız": 3907,
      "erc": 3908,
      "▁arada": 3909,
      "ban": 3910,
      "eşil": 3911,
      "▁incelem": 3912,
      "▁Kem": 3913,
      "igh": 3914,
      "enler": 3915,
      "▁altı": 3916,
      "isayar": 3917,
      "aca": 3918,
      "▁Dem": 3919,
      "ıklı": 3920,
      "▁yumuş": 3921,
      "▁yapılmış": 3922,
      "▁mücad": 3923,
      "▁Eğitim": 3924,
      "▁dönemde": 3925,
      "▁vol": 3926,
      "▁non": 3927,
      "▁esn": 3928,
      "▁performed": 3929,
      "get": 3930,
      "▁ölçü": 3931,
      "▁bozuk": 3932,
      "▁etkileri": 3933,
      "▁hatta": 3934,
      "▁bakımından": 3935,
      "lıkları": 3936,
      "ute": 3937,
      "tak": 3938,
      "▁net": 3939,
      "▁opt": 3940,
      "▁Türkç": 3941,
      "onu": 3942,
      "layıcı": 3943,
      "▁behavi": 3944,
      "▁yabancı": 3945,
      "ema": 3946,
      "owever": 3947,
      "____": 3948,
      "▁çocuğ": 3949,
      "eygamber": 3950,
      "▁Windows": 3951,
      "leyici": 3952,
      "▁lab": 3953,
      "▁included": 3954,
      "▁ima": 3955,
      "▁şöyle": 3956,
      "▁yana": 3957,
      "▁gözlem": 3958,
      "▁scores": 3959,
      "erv": 3960,
      "▁Genel": 3961,
      "▁öğ": 3962,
      "▁ilç": 3963,
      "bas": 3964,
      "meleri": 3965,
      "ility": 3966,
      "▁tehlik": 3967,
      "ulmuş": 3968,
      "▁ken": 3969,
      "eydi": 3970,
      "▁off": 3971,
      "sor": 3972,
      "aklı": 3973,
      "▁should": 3974,
      "▁İyi": 3975,
      "gili": 3976,
      "▁cap": 3977,
      "ian": 3978,
      "erken": 3979,
      "İK": 3980,
      "words": 3981,
      "▁Sür": 3982,
      "ris": 3983,
      "▁grubunda": 3984,
      "▁Değ": 3985,
      "▁ziyaret": 3986,
      "▁Bağ": 3987,
      "▁arz": 3988,
      "▁işe": 3989,
      "▁ifad": 3990,
      "DA": 3991,
      "▁düzeyde": 3992,
      "âl": 3993,
      "▁kalın": 3994,
      "▁diagn": 3995,
      "▁internet": 3996,
      "▁biçim": 3997,
      "▁bulunduğu": 3998,
      "▁düzelt": 3999,
      "▁olumsuz": 4000,
      "ayıf": 4001,
      "▁techni": 4002,
      "elidir": 4003,
      "ınızı": 4004,
      "▁erken": 4005,
      "▁hip": 4006,
      "▁kop": 4007,
      "bon": 4008,
      "▁rate": 4009,
      "▁bağlam": 4010,
      "▁up": 4011,
      "▁Onun": 4012,
      "îr": 4013,
      "▁sabah": 4014,
      "elerden": 4015,
      "▁çal": 4016,
      "▁ince": 4017,
      "▁ko": 4018,
      "▁Anal": 4019,
      "▁çift": 4020,
      "▁aks": 4021,
      "afa": 4022,
      "▁approach": 4023,
      "his": 4024,
      "▁süresi": 4025,
      "▁yoktur": 4026,
      "▁Ağ": 4027,
      "▁öncesi": 4028,
      "▁each": 4029,
      "ıma": 4030,
      "▁olmadığını": 4031,
      "▁kişisel": 4032,
      "▁arab": 4033,
      "NA": 4034,
      "▁bulundu": 4035,
      "▁Kır": 4036,
      "▁Un": 4037,
      "▁hissed": 4038,
      "▁alır": 4039,
      "▁related": 4040,
      "▁İm": 4041,
      "▁adlı": 4042,
      "▁ortak": 4043,
      "▁Ac": 4044,
      "kar": 4045,
      "eyim": 4046,
      "▁hâlâ": 4047,
      "mur": 4048,
      "ger": 4049,
      "elerdir": 4050,
      "▁performance": 4051,
      "ÜN": 4052,
      "▁sırada": 4053,
      "▁yeter": 4054,
      "rek": 4055,
      "▁aydın": 4056,
      "▁dışarı": 4057,
      "▁Meh": 4058,
      "▁kimse": 4059,
      "ump": 4060,
      "▁activities": 4061,
      "▁women": 4062,
      "▁öğretim": 4063,
      "▁Hav": 4064,
      "▁değeri": 4065,
      "▁şık": 4066,
      "yasal": 4067,
      "kal": 4068,
      "▁rap": 4069,
      "taki": 4070,
      "▁Beb": 4071,
      "erap": 4072,
      "uldu": 4073,
      "▁cell": 4074,
      "▁inde": 4075,
      "elli": 4076,
      "EY": 4077,
      "▁parameters": 4078,
      "omp": 4079,
      "▁fiyata": 4080,
      "Ar": 4081,
      "▁rast": 4082,
      "▁insanlar": 4083,
      "nT": 4084,
      "▁hepsi": 4085,
      "inize": 4086,
      "▁three": 4087,
      "▁ge": 4088,
      "▁crit": 4089,
      "▁güneş": 4090,
      "fen": 4091,
      "▁conditions": 4092,
      "▁ciddi": 4093,
      "▁iletişim": 4094,
      "▁aktar": 4095,
      "▁Sen": 4096,
      "lulu": 4097,
      "▁Nedir": 4098,
      "▁öd": 4099,
      "▁low": 4100,
      "ekim": 4101,
      "▁altına": 4102,
      "▁Hız": 4103,
      "chi": 4104,
      "uzur": 4105,
      "▁list": 4106,
      "AZ": 4107,
      "▁uyan": 4108,
      "iyan": 4109,
      "▁energy": 4110,
      "▁protein": 4111,
      "▁Mat": 4112,
      "bur": 4113,
      "ıldığında": 4114,
      "öv": 4115,
      "ısal": 4116,
      "ables": 4117,
      "▁ret": 4118,
      "▁sanki": 4119,
      "▁dolu": 4120,
      "▁pozitif": 4121,
      "ym": 4122,
      "▁fam": 4123,
      "▁Yak": 4124,
      "dikleri": 4125,
      "UL": 4126,
      "des": 4127,
      "gör": 4128,
      "▁toplumsal": 4129,
      "▁aimed": 4130,
      "inç": 4131,
      "▁basit": 4132,
      "▁başını": 4133,
      "▁ulus": 4134,
      "▁mutlak": 4135,
      "▁yanlış": 4136,
      "▁ölçüm": 4137,
      "lusion": 4138,
      "▁phys": 4139,
      "imizin": 4140,
      "rac": 4141,
      "▁bulunmaktadır": 4142,
      "▁kulak": 4143,
      "▁komp": 4144,
      "üslüm": 4145,
      "▁temsil": 4146,
      "▁general": 4147,
      "ıyoruz": 4148,
      "▁prim": 4149,
      "▁Yük": 4150,
      "▁duvar": 4151,
      "aw": 4152,
      "lav": 4153,
      "dığında": 4154,
      "▁Kr": 4155,
      ".[": 4156,
      "▁altern": 4157,
      "▁gelişim": 4158,
      "▁sahiptir": 4159,
      "▁chap": 4160,
      "iri": 4161,
      "▁unsur": 4162,
      "▁fotoğraf": 4163,
      "▁kişinin": 4164,
      "▁fiziksel": 4165,
      "▁İslâm": 4166,
      "▁hy": 4167,
      "▁diyor": 4168,
      "İT": 4169,
      "▁marka": 4170,
      "▁world": 4171,
      "▁Kö": 4172,
      "▁olumlu": 4173,
      "▁toplan": 4174,
      "▁artış": 4175,
      "▁Diğer": 4176,
      "ilendir": 4177,
      "ula": 4178,
      "▁kapat": 4179,
      "▁insanların": 4180,
      "lamış": 4181,
      "çak": 4182,
      "▁başlan": 4183,
      "▁participants": 4184,
      "▁production": 4185,
      "esindeki": 4186,
      "▁pazar": 4187,
      "ham": 4188,
      "ülebilir": 4189,
      "ock": 4190,
      "▁Form": 4191,
      "ete": 4192,
      "esiz": 4193,
      "▁sens": 4194,
      "imal": 4195,
      "▁isteyen": 4196,
      "tures": 4197,
      "ısır": 4198,
      "▁seen": 4199,
      "▁uygulamalar": 4200,
      "▁süper": 4201,
      "linik": 4202,
      "▁yandan": 4203,
      "▁teknoloj": 4204,
      "▁Has": 4205,
      "în": 4206,
      "▁occ": 4207,
      "meliyat": 4208,
      "▁yaklaşık": 4209,
      "rib": 4210,
      "▁tutum": 4211,
      "▁öğrencilerin": 4212,
      "ospit": 4213,
      "▁sahibi": 4214,
      "▁algı": 4215,
      "▁well": 4216,
      "▁Sultan": 4217,
      "▁Sal": 4218,
      "▁kişiler": 4219,
      "▁bank": 4220,
      "kim": 4221,
      "▁Tav": 4222,
      "▁bugün": 4223,
      "▁yeri": 4224,
      "▁aldığı": 4225,
      "ED": 4226,
      "▁cre": 4227,
      "ced": 4228,
      "▁onlara": 4229,
      "▁henüz": 4230,
      "test": 4231,
      "▁sig": 4232,
      "lob": 4233,
      "ezi": 4234,
      "▁şirket": 4235,
      "▁Hak": 4236,
      "▁işte": 4237,
      "lek": 4238,
      "▁geçti": 4239,
      "▁düzeyi": 4240,
      "▁key": 4241,
      "▁cerrah": 4242,
      "▁Kah": 4243,
      "▁yolu": 4244,
      "▁Örn": 4245,
      "▁şeklinde": 4246,
      "▁emin": 4247,
      "▁solu": 4248,
      "▁=": 4249,
      "▁itibaren": 4250,
      "mıştım": 4251,
      "ird": 4252,
      "▁uygulanan": 4253,
      "lamaları": 4254,
      "▁dök": 4255,
      "▁İst": 4256,
      "iter": 4257,
      "▁AN": 4258,
      "▁verdiği": 4259,
      "AC": 4260,
      "▁gitti": 4261,
      "▁correl": 4262,
      "▁ağrı": 4263,
      "tın": 4264,
      "dığımız": 4265,
      "▁ağz": 4266,
      "talya": 4267,
      "ination": 4268,
      "ova": 4269,
      "▁buy": 4270,
      "io": 4271,
      "▁içi": 4272,
      "lığına": 4273,
      "▁Pri": 4274,
      "▁Gö": 4275,
      "▁Man": 4276,
      "▁concept": 4277,
      "▁sizin": 4278,
      "▁Kas": 4279,
      "parator": 4280,
      "leştirilmiş": 4281,
      "▁bağımsız": 4282,
      "▁mutlu": 4283,
      "▁gösteren": 4284,
      "▁due": 4285,
      "ografik": 4286,
      "▁deneyim": 4287,
      "▁nef": 4288,
      "▁iddi": 4289,
      "▁şüp": 4290,
      "▁individuals": 4291,
      "▁insanın": 4292,
      "ştık": 4293,
      "▁Kor": 4294,
      "▁stratej": 4295,
      "▁akşam": 4296,
      "▁cinsiyet": 4297,
      "▁zayıf": 4298,
      "▁konuda": 4299,
      "▁teor": 4300,
      "▁korun": 4301,
      "▁Af": 4302,
      "gesi": 4303,
      "▁Sam": 4304,
      "▁piyas": 4305,
      "▁motor": 4306,
      "liğin": 4307,
      "▁geçmiş": 4308,
      "▁düzeyleri": 4309,
      "nD": 4310,
      "▁kelimeler": 4311,
      "can": 4312,
      "▁Hiç": 4313,
      "▁metal": 4314,
      "▁Ex": 4315,
      "▁kayıt": 4316,
      "▁olası": 4317,
      "▁Su": 4318,
      "▁dedim": 4319,
      "▁meş": 4320,
      "▁prepar": 4321,
      "▁gr": 4322,
      "▁fi": 4323,
      "▁Muham": 4324,
      "▁yukarı": 4325,
      "▁şiş": 4326,
      "ilebilir": 4327,
      "ick": 4328,
      "▁Bütün": 4329,
      "aydı": 4330,
      "▁sonuçları": 4331,
      "▁Tel": 4332,
      "üyordu": 4333,
      "▁kür": 4334,
      "▁sa": 4335,
      "ikler": 4336,
      "▁discus": 4337,
      "kem": 4338,
      "▁etki": 4339,
      "▁uyar": 4340,
      "▁şah": 4341,
      "▁süt": 4342,
      "▁:)": 4343,
      "▁otomatik": 4344,
      "▁vücut": 4345,
      "eci": 4346,
      "▁alınmıştır": 4347,
      "▁içeren": 4348,
      "▁hastalarda": 4349,
      "nak": 4350,
      "İL": 4351,
      "▁gra": 4352,
      "mür": 4353,
      "bar": 4354,
      "▁biliyor": 4355,
      "▁employ": 4356,
      "oya": 4357,
      "Ne": 4358,
      "alarına": 4359,
      "▁area": 4360,
      "▁yaptı": 4361,
      "▁günün": 4362,
      "edeni": 4363,
      "▁aut": 4364,
      "text": 4365,
      "▁ordu": 4366,
      "ton": 4367,
      "mayacak": 4368,
      "pectively": 4369,
      "▁kalite": 4370,
      "▁istediğiniz": 4371,
      "osu": 4372,
      "▁taşıy": 4373,
      "▁kendisini": 4374,
      "orat": 4375,
      "▁etraf": 4376,
      "▁Bar": 4377,
      "▁Arap": 4378,
      "ided": 4379,
      "Hay": 4380,
      "ira": 4381,
      "ptom": 4382,
      "▁±": 4383,
      "▁kök": 4384,
      "eth": 4385,
      "OK": 4386,
      "▁tane": 4387,
      "ices": 4388,
      "▁gülüms": 4389,
      "▁yıldız": 4390,
      ".»": 4391,
      "▁mekt": 4392,
      "%)": 4393,
      "ave": 4394,
      "▁kendisi": 4395,
      "mal": 4396,
      "encer": 4397,
      "▁onlar": 4398,
      "▁when": 4399,
      "▁silah": 4400,
      "▁yaşayan": 4401,
      "▁zih": 4402,
      "▁du": 4403,
      "▁fikir": 4404,
      "▁hayal": 4405,
      "▁enfeksiyon": 4406,
      "üven": 4407,
      "ıyla": 4408,
      "▁uyum": 4409,
      "▁Per": 4410,
      "▁Aş": 4411,
      "mon": 4412,
      "▁basın": 4413,
      "▁koru": 4414,
      "▁dek": 4415,
      "▁public": 4416,
      "itative": 4417,
      "gıç": 4418,
      "emey": 4419,
      "▁defa": 4420,
      "▁taken": 4421,
      "▁He": 4422,
      "▁SPSS": 4423,
      "duğunu": 4424,
      "eff": 4425,
      "▁gib": 4426,
      "ığ": 4427,
      "▁bunların": 4428,
      "cial": 4429,
      "güt": 4430,
      "cy": 4431,
      "▁önüne": 4432,
      "▁merak": 4433,
      "har": 4434,
      "▁bunlar": 4435,
      "uzey": 4436,
      "▁yarı": 4437,
      "▁tahmin": 4438,
      "▁öne": 4439,
      "maktan": 4440,
      "vantaj": 4441,
      "▁arası": 4442,
      "▁görünü": 4443,
      "▁aracı": 4444,
      "oks": 4445,
      "TM": 4446,
      "▁aile": 4447,
      "pen": 4448,
      "▁değişim": 4449,
      "emişti": 4450,
      "▁Böylece": 4451,
      "tis": 4452,
      "▁alg": 4453,
      "▁kâ": 4454,
      "▁üstün": 4455,
      "▁frequ": 4456,
      "▁sinir": 4457,
      "mekte": 4458,
      "▁mm": 4459,
      "ught": 4460,
      "▁mikro": 4461,
      "minist": 4462,
      "enizi": 4463,
      "ential": 4464,
      "ats": 4465,
      "▁ces": 4466,
      "▁mic": 4467,
      "▁asit": 4468,
      "maktır": 4469,
      "ources": 4470,
      "▁characteristics": 4471,
      "▁eğer": 4472,
      "▁huzur": 4473,
      "ght": 4474,
      "▁karış": 4475,
      "erez": 4476,
      "▁doldur": 4477,
      "▁kaldı": 4478,
      "▁Hz": 4479,
      "▁vazgeç": 4480,
      "▁kalp": 4481,
      "▁madde": 4482,
      "kân": 4483,
      "▁Düş": 4484,
      "▁kaybet": 4485,
      "oft": 4486,
      "▁properties": 4487,
      "asi": 4488,
      "ful": 4489,
      "adı": 4490,
      "wn": 4491,
      "lement": 4492,
      "▁market": 4493,
      "▁savun": 4494,
      "▁altın": 4495,
      "▁sıv": 4496,
      "▁başt": 4497,
      "▁Dep": 4498,
      "dust": 4499,
      "▁gelenek": 4500,
      "▁kurtar": 4501,
      "▁*": 4502,
      "▁ren": 4503,
      "ulması": 4504,
      "▁felsef": 4505,
      "İn": 4506,
      "isinden": 4507,
      "▁However": 4508,
      "▁Mak": 4509,
      "▁mağ": 4510,
      "ebilecek": 4511,
      "unuyor": 4512,
      "▁Sur": 4513,
      "uklu": 4514,
      "▁boğ": 4515,
      "▁among": 4516,
      "ector": 4517,
      "▁ا": 4518,
      "ımın": 4519,
      "▁bundan": 4520,
      "▁soğuk": 4521,
      "▁scale": 4522,
      "▁varsa": 4523,
      "▁yapma": 4524,
      "▁Kol": 4525,
      "▁bö": 4526,
      "▁döneminde": 4527,
      "▁dan": 4528,
      "▁sesi": 4529,
      "Evet": 4530,
      "zet": 4531,
      "▁Â": 4532,
      "acy": 4533,
      "muyor": 4534,
      "bak": 4535,
      "▁various": 4536,
      "▁isteğ": 4537,
      "▁where": 4538,
      "istik": 4539,
      "▁lez": 4540,
      "▁kelimesi": 4541,
      "ayla": 4542,
      "eredeyse": 4543,
      "▁Buna": 4544,
      "▁With": 4545,
      "▁Keywords": 4546,
      "▁yapıldı": 4547,
      "▁Bazı": 4548,
      "▁memnunum": 4549,
      "▁bal": 4550,
      "▁Dön": 4551,
      "...\\": 4552,
      "ographic": 4553,
      "▁experimental": 4554,
      "▁Savaş": 4555,
      "emen": 4556,
      "▁İkinci": 4557,
      "tep": 4558,
      "▁systems": 4559,
      "dentif": 4560,
      "yap": 4561,
      "SA": 4562,
      "lenir": 4563,
      "cular": 4564,
      "ullah": 4565,
      "▁yaşlı": 4566,
      "▁hel": 4567,
      "▁variables": 4568,
      "▁Tab": 4569,
      "ileş": 4570,
      "▁working": 4571,
      "emiş": 4572,
      "▁lear": 4573,
      "▁Üst": 4574,
      "▁özgür": 4575,
      "nA": 4576,
      "▁ettik": 4577,
      "▁Kom": 4578,
      "▁bulgu": 4579,
      "▁yerleş": 4580,
      "▁context": 4581,
      "▁reveal": 4582,
      "▁başında": 4583,
      "▁water": 4584,
      "▁öt": 4585,
      "▁okuy": 4586,
      "▁müda": 4587,
      "▁kanı": 4588,
      "pro": 4589,
      "▁anne": 4590,
      "▁duygu": 4591,
      "▁koruy": 4592,
      "▁gerçekleş": 4593,
      "▁yapıyor": 4594,
      "▁ayır": 4595,
      "▁Tak": 4596,
      "▁only": 4597,
      "jen": 4598,
      "▁doğrudan": 4599,
      "▁karşılaş": 4600,
      "▁almış": 4601,
      "▁gücü": 4602,
      "▁Araştırmanın": 4603,
      "▁Geç": 4604,
      "▁type": 4605,
      "▁application": 4606,
      "▁belirlenmesi": 4607,
      "ilar": 4608,
      "iyye": 4609,
      "▁Kiş": 4610,
      "▁Muhammed": 4611,
      "lerce": 4612,
      "za": 4613,
      "▁being": 4614,
      "▁region": 4615,
      "▁işi": 4616,
      "▁ettim": 4617,
      "▁Aç": 4618,
      "▁işlev": 4619,
      "▁Kim": 4620,
      "iber": 4621,
      "▁karşısında": 4622,
      "▁bebeğ": 4623,
      "▁sıkıntı": 4624,
      "▁human": 4625,
      "UM": 4626,
      "▁çalıştı": 4627,
      "▁Univers": 4628,
      "▁çoğu": 4629,
      "lex": 4630,
      "▁pratik": 4631,
      "▁commun": 4632,
      "▁economic": 4633,
      "ding": 4634,
      "yüz": 4635,
      "▁impro": 4636,
      "▁doğum": 4637,
      "▁May": 4638,
      "▁belirli": 4639,
      "▁kanser": 4640,
      "lığının": 4641,
      "▁etme": 4642,
      "▁cm": 4643,
      "ırıl": 4644,
      "▁way": 4645,
      "action": 4646,
      "▁literatür": 4647,
      "▁nokta": 4648,
      "▁bl": 4649,
      "▁verilmiştir": 4650,
      "▁role": 4651,
      "▁olun": 4652,
      "rem": 4653,
      "jital": 4654,
      "masından": 4655,
      "til": 4656,
      "▁ip": 4657,
      "▁yazar": 4658,
      "▁hizmetleri": 4659,
      "▁kalma": 4660,
      "▁düşman": 4661,
      "▁yaptığ": 4662,
      "▁VE": 4663,
      "▁döndü": 4664,
      "▁ib": 4665,
      "▁sonrasında": 4666,
      "nM": 4667,
      "▁yiy": 4668,
      "▁ez": 4669,
      "▁pan": 4670,
      "▁suc": 4671,
      "▁experi": 4672,
      "▁etkinlik": 4673,
      "▁standart": 4674,
      "▁yeten": 4675,
      "best": 4676,
      "ision": 4677,
      "lıklar": 4678,
      "▁sci": 4679,
      "▁alıp": 4680,
      "▁alanında": 4681,
      "▁veriyor": 4682,
      "▁günde": 4683,
      "▁oldukları": 4684,
      "▁Merkez": 4685,
      "urken": 4686,
      "ustafa": 4687,
      "▁cilt": 4688,
      "▁differences": 4689,
      "▁disease": 4690,
      "▁Mu": 4691,
      "öğr": 4692,
      "▁Bunu": 4693,
      "ount": 4694,
      "▁çalışması": 4695,
      "▁AL": 4696,
      "ications": 4697,
      "ğine": 4698,
      "▁When": 4699,
      "▁bölümünde": 4700,
      "▁programı": 4701,
      "ially": 4702,
      "▁importance": 4703,
      "▁Sh": 4704,
      "▁prac": 4705,
      "▁management": 4706,
      "▁Orta": 4707,
      "▁question": 4708,
      "▁identif": 4709,
      "▁mul": 4710,
      "imens": 4711,
      "▁changes": 4712,
      "▁anket": 4713,
      "▁bağır": 4714,
      "▁öy": 4715,
      "▁gören": 4716,
      "▁uğ": 4717,
      "ospital": 4718,
      "▁+": 4719,
      "▁hand": 4720,
      "▁Teşekkürler": 4721,
      "▁Ap": 4722,
      "▁Sak": 4723,
      "fat": 4724,
      "▁len": 4725,
      "▁Çalışmamız": 4726,
      "amik": 4727,
      "ving": 4728,
      "▁Sar": 4729,
      "▁doğrult": 4730,
      "▁Prima": 4731,
      "iyim": 4732,
      "▁gönd": 4733,
      "amay": 4734,
      "▁gem": 4735,
      "▁kaş": 4736,
      "▁yararlan": 4737,
      "▁sefer": 4738,
      "▁güncel": 4739,
      "▁content": 4740,
      "▁Sev": 4741,
      "▁chapter": 4742,
      "▁Sosyal": 4743,
      "ısız": 4744,
      "icient": 4745,
      "▁ear": 4746,
      "usunu": 4747,
      "▁ten": 4748,
      "▁bağlantı": 4749,
      "▁olmasına": 4750,
      "tip": 4751,
      "▁yoksa": 4752,
      "▁ters": 4753,
      "ody": 4754,
      "▁prop": 4755,
      "▁intern": 4756,
      "▁saptanmıştır": 4757,
      "▁çap": 4758,
      "▁medya": 4759,
      "ame": 4760,
      "roup": 4761,
      "yen": 4762,
      "▁val": 4763,
      "▁avantaj": 4764,
      "iyer": 4765,
      "ağın": 4766,
      "▁Bal": 4767,
      "▁&": 4768,
      "ladık": 4769,
      "▁underst": 4770,
      "▁sample": 4771,
      "▁fut": 4772,
      "▁seçeneği": 4773,
      "▁Kaz": 4774,
      "▁adına": 4775,
      "âd": 4776,
      "▁Ham": 4777,
      "▁power": 4778,
      "▁subject": 4779,
      "▁calcul": 4780,
      "▁devr": 4781,
      "▁Batı": 4782,
      "▁fem": 4783,
      "▁status": 4784,
      "▁tır": 4785,
      "▁aşırı": 4786,
      "Türk": 4787,
      "▁zek": 4788,
      "▁asla": 4789,
      "▁pl": 4790,
      "ûr": 4791,
      "▁yatırım": 4792,
      "izyon": 4793,
      "▁those": 4794,
      "▁süreci": 4795,
      "tarı": 4796,
      "▁kamu": 4797,
      "üml": 4798,
      "▁gelecek": 4799,
      "▁bilir": 4800,
      "view": 4801,
      "▁toz": 4802,
      "▁Ma": 4803,
      "▁esas": 4804,
      "ğin": 4805,
      "droid": 4806,
      "▁nüf": 4807,
      "ering": 4808,
      "larındaki": 4809,
      "▁kaldım": 4810,
      "nE": 4811,
      "ansal": 4812,
      "doğ": 4813,
      "▁Hızlı": 4814,
      "▁kısmı": 4815,
      "▁sizi": 4816,
      "▁ask": 4817,
      "▁herkes": 4818,
      "▁Mus": 4819,
      "▁yapıl": 4820,
      "▁garant": 4821,
      "▁cep": 4822,
      "▁gönül": 4823,
      "▁şark": 4824,
      "▁görm": 4825,
      "▁görülen": 4826,
      "▁köş": 4827,
      "▁aktif": 4828,
      "yol": 4829,
      "▁konum": 4830,
      "mun": 4831,
      "▁effective": 4832,
      "liğinin": 4833,
      "üstü": 4834,
      "▁seçim": 4835,
      "▁aver": 4836,
      "▁sent": 4837,
      "üslüman": 4838,
      "ited": 4839,
      "▁yola": 4840,
      "▁syn": 4841,
      "▁bulunma": 4842,
      "ze": 4843,
      "▁sep": 4844,
      "unuş": 4845,
      "IK": 4846,
      "▁katılımcı": 4847,
      "▁administ": 4848,
      "ilim": 4849,
      "▁gür": 4850,
      "▁Qu": 4851,
      "▁nan": 4852,
      "▁mim": 4853,
      "▁change": 4854,
      "▁kılı": 4855,
      "▁uyku": 4856,
      "DE": 4857,
      "emizde": 4858,
      "▁bence": 4859,
      "▁vir": 4860,
      "▁olacağ": 4861,
      "lasik": 4862,
      "nik": 4863,
      "........": 4864,
      "ause": 4865,
      "ilme": 4866,
      "▁olmalı": 4867,
      "dığınız": 4868,
      "▁hap": 4869,
      "hib": 4870,
      "ıb": 4871,
      "urum": 4872,
      "eness": 4873,
      "▁clin": 4874,
      "▁gerektir": 4875,
      "bah": 4876,
      "▁isim": 4877,
      "▁zam": 4878,
      "▁eb": 4879,
      "▁etmektedir": 4880,
      "▁Burada": 4881,
      "iyesi": 4882,
      "▁olgu": 4883,
      "yr": 4884,
      "▁Neden": 4885,
      "▁hızla": 4886,
      "▁Mes": 4887,
      "▁University": 4888,
      "▁imkanı": 4889,
      "liğe": 4890,
      "crip": 4891,
      "▁mesel": 4892,
      "öyl": 4893,
      "▁üçüncü": 4894,
      "ner": 4895,
      "elerle": 4896,
      "▁açıdan": 4897,
      "▁yaşama": 4898,
      "▁göç": 4899,
      "ques": 4900,
      "▁edecek": 4901,
      "▁birinci": 4902,
      "▁sorum": 4903,
      "izin": 4904,
      "lant": 4905,
      "▁yapısı": 4906,
      "▁place": 4907,
      "▁expr": 4908,
      "▁serum": 4909,
      "▁anlama": 4910,
      "▁dikk": 4911,
      "▁div": 4912,
      "▁yetiş": 4913,
      "▁how": 4914,
      "▁ال": 4915,
      "▁İslam": 4916,
      "▁programları": 4917,
      "▁algor": 4918,
      "▁alışveriş": 4919,
      "▁contrib": 4920,
      "limat": 4921,
      "▁Le": 4922,
      "işini": 4923,
      "▁Yapılan": 4924,
      "orum": 4925,
      "▁herkese": 4926,
      "▁Uzun": 4927,
      "dıktan": 4928,
      "▁kokusu": 4929,
      "▁karşılık": 4930,
      "EC": 4931,
      "▁bitk": 4932,
      "ülük": 4933,
      "▁ısı": 4934,
      "▁ağaç": 4935,
      "▁yerleştir": 4936,
      "▁Mustafa": 4937,
      "lüyor": 4938,
      "▁dolaş": 4939,
      "▁düşür": 4940,
      "asa": 4941,
      "▁ölçüde": 4942,
      "ney": 4943,
      "▁Video": 4944,
      "isiyle": 4945,
      "▁kural": 4946,
      "▁eleştir": 4947,
      "ileştir": 4948,
      "▁history": 4949,
      "eyh": 4950,
      "▁works": 4951,
      "▁rati": 4952,
      "▁alanı": 4953,
      "tical": 4954,
      "▁Te": 4955,
      "▁dey": 4956,
      "▁olduğundan": 4957,
      "▁common": 4958,
      "face": 4959,
      "olar": 4960,
      "▁üstüne": 4961,
      "▁modeli": 4962,
      "▁kültürel": 4963,
      "▁Gir": 4964,
      "▁No": 4965,
      "âs": 4966,
      "▁Bursa": 4967,
      "ned": 4968,
      "▁görsel": 4969,
      "ix": 4970,
      "▁areas": 4971,
      "▁ünivers": 4972,
      "▁bilgisayar": 4973,
      "ütfen": 4974,
      "▁lik": 4975,
      "▁sağla": 4976,
      "▁care": 4977,
      "▁equ": 4978,
      "▁geb": 4979,
      "▁doğrultusunda": 4980,
      "▁ondan": 4981,
      "▁Yüksek": 4982,
      "▁Android": 4983,
      "▁bizi": 4984,
      "ştim": 4985,
      "▁olursa": 4986,
      "▁uzat": 4987,
      "▁sez": 4988,
      "erebilir": 4989,
      "ışma": 4990,
      "EP": 4991,
      "▁isten": 4992,
      "▁hastalığı": 4993,
      "▁yüzde": 4994,
      "▁percep": 4995,
      "▁web": 4996,
      "▁ihtiyac": 4997,
      "▁diren": 4998,
      "alığı": 4999,
      "ünüz": 5000,
      "▁neredeyse": 5001,
      "▁yanına": 5002,
      "ester": 5003,
      "▁lead": 5004,
      "rent": 5005,
      "other": 5006,
      "aly": 5007,
      "onik": 5008,
      "isin": 5009,
      "▁mant": 5010,
      "▁attit": 5011,
      "▁sağlamak": 5012,
      "tiler": 5013,
      "ste": 5014,
      "▁Az": 5015,
      "oot": 5016,
      "▁sermay": 5017,
      "okul": 5018,
      "▁vermek": 5019,
      "▁siyah": 5020,
      "▁same": 5021,
      "▁Dok": 5022,
      "diğinde": 5023,
      "ledge": 5024,
      "▁physical": 5025,
      "IS": 5026,
      "▁Fransız": 5027,
      "▁güvenilir": 5028,
      "layın": 5029,
      "elerinden": 5030,
      "▁yumuşak": 5031,
      "OL": 5032,
      "▁edebiyat": 5033,
      "▁düzenli": 5034,
      "▁zev": 5035,
      "▁nö": 5036,
      "▁line": 5037,
      "altı": 5038,
      "▁eşit": 5039,
      "pecially": 5040,
      "cısı": 5041,
      "▁bölümünü": 5042,
      "▁Bunlar": 5043,
      "sas": 5044,
      "▁şüph": 5045,
      "▁These": 5046,
      "▁verim": 5047,
      "▁içindeki": 5048,
      "ült": 5049,
      "quir": 5050,
      "kol": 5051,
      "ills": 5052,
      "▁countries": 5053,
      "urdu": 5054,
      "▁sonraki": 5055,
      "▁TL": 5056,
      "▁ameliyat": 5057,
      "▁respectively": 5058,
      "otik": 5059,
      "ster": 5060,
      "▁activity": 5061,
      "▁egz": 5062,
      "yc": 5063,
      "▁Yıl": 5064,
      "ilip": 5065,
      "ronik": 5066,
      "▁verdim": 5067,
      "uf": 5068,
      "süz": 5069,
      "ines": 5070,
      "▁verileri": 5071,
      "▁kuruluş": 5072,
      "▁takım": 5073,
      "eration": 5074,
      "▁nec": 5075,
      "▁Kemal": 5076,
      "▁success": 5077,
      "▁muk": 5078,
      "▁durumunda": 5079,
      "▁sağlayan": 5080,
      "eceğiniz": 5081,
      "▁ABD": 5082,
      "▁müzik": 5083,
      "nedir": 5084,
      "kel": 5085,
      "▁klinik": 5086,
      "▁lek": 5087,
      "ages": 5088,
      "▁gay": 5089,
      "▁Bilg": 5090,
      "oph": 5091,
      "▁olacaktır": 5092,
      "▁gösterir": 5093,
      "▁göstermektedir": 5094,
      "chiev": 5095,
      "▁oyunları": 5096,
      "▁temper": 5097,
      "▁correlation": 5098,
      "▁Yine": 5099,
      "▁yöntemleri": 5100,
      "▁lider": 5101,
      "▁Say": 5102,
      "▁çocukların": 5103,
      "mar": 5104,
      "▁üstünde": 5105,
      "▁fırsat": 5106,
      "▁ticaret": 5107,
      "▁showed": 5108,
      "▁demir": 5109,
      "▁derecede": 5110,
      "ivil": 5111,
      "▁kullanarak": 5112,
      "▁III": 5113,
      "▁oğlu": 5114,
      "▁İçin": 5115,
      "▁Tam": 5116,
      "▁şarj": 5117,
      "igi": 5118,
      "▁nitelik": 5119,
      "ediğini": 5120,
      "ults": 5121,
      "▁Peygamber": 5122,
      "▁tedavisi": 5123,
      "▁yönde": 5124,
      "▁ekran": 5125,
      "erse": 5126,
      "alat": 5127,
      "▁Benim": 5128,
      "▁Kıs": 5129,
      "▁haft": 5130,
      "irmi": 5131,
      "▁expla": 5132,
      "sych": 5133,
      "▁increasing": 5134,
      "▁prev": 5135,
      "▁tests": 5136,
      "▁Sa": 5137,
      "▁acid": 5138,
      "ie": 5139,
      "▁görüyor": 5140,
      "kır": 5141,
      "▁yaptık": 5142,
      "ınıza": 5143,
      "▁çeviri": 5144,
      "▁score": 5145,
      "▁We": 5146,
      "▁Çin": 5147,
      "▁kategor": 5148,
      "▁nedeni": 5149,
      "ydi": 5150,
      "stos": 5151,
      "▁görür": 5152,
      "▁öf": 5153,
      "▁self": 5154,
      "tain": 5155,
      "▁gazet": 5156,
      "▁Mem": 5157,
      "ıza": 5158,
      "▁görülmektedir": 5159,
      "▁family": 5160,
      "ively": 5161,
      "▁very": 5162,
      "▁contin": 5163,
      "guage": 5164,
      "etin": 5165,
      "ray": 5166,
      "esyon": 5167,
      "▁mel": 5168,
      "▁Mark": 5169,
      "rol": 5170,
      "kop": 5171,
      "▁kamp": 5172,
      "layıp": 5173,
      "▁gördü": 5174,
      "makla": 5175,
      "▁örgüt": 5176,
      "▁dünyanın": 5177,
      "▁indust": 5178,
      "▁Ph": 5179,
      "alardan": 5180,
      "▁kullanılır": 5181,
      "atures": 5182,
      "▁göl": 5183,
      "▁Mart": 5184,
      "abilmek": 5185,
      "▁vis": 5186,
      "▁aslında": 5187,
      "▁gender": 5188,
      "▁Fark": 5189,
      "▁did": 5190,
      "▁four": 5191,
      "▁güvenlik": 5192,
      "oci": 5193,
      "kek": 5194,
      "▁başlayan": 5195,
      "imden": 5196,
      "▁Grup": 5197,
      "▁To": 5198,
      "▁neler": 5199,
      "▁tabi": 5200,
      "▁Adam": 5201,
      "nY": 5202,
      "tens": 5203,
      "sizlik": 5204,
      "iteli": 5205,
      "▁olanak": 5206,
      "▁doku": 5207,
      "▁Test": 5208,
      "▁görünt": 5209,
      "▁uygula": 5210,
      "▁regard": 5211,
      "ılarak": 5212,
      "cent": 5213,
      "dit": 5214,
      "unç": 5215,
      "▁negative": 5216,
      "▁pred": 5217,
      "▁sayıda": 5218,
      "▁sorunu": 5219,
      "▁şeyin": 5220,
      "▁özelliği": 5221,
      "azi": 5222,
      "istance": 5223,
      "▁After": 5224,
      "▁Araştırmada": 5225,
      "▁Elde": 5226,
      "haber": 5227,
      "▁section": 5228,
      "▁yüzünden": 5229,
      "ived": 5230,
      "uzel": 5231,
      "IL": 5232,
      "▁collected": 5233,
      "ves": 5234,
      "▁ı": 5235,
      "▁aracılığı": 5236,
      "ğustos": 5237,
      "▁grow": 5238,
      "▁lar": 5239,
      "▁göğ": 5240,
      "▁Çalışmada": 5241,
      "▁gök": 5242,
      "▁uluslararası": 5243,
      "▁aday": 5244,
      "▁alanda": 5245,
      "▁yıllarda": 5246,
      "▁talep": 5247,
      "ÜR": 5248,
      "imizde": 5249,
      "▁bilinen": 5250,
      "erh": 5251,
      "▁month": 5252,
      "▁mutlaka": 5253,
      "isfac": 5254,
      "▁Re": 5255,
      "liğine": 5256,
      "▁adamın": 5257,
      "▁olduğuna": 5258,
      "▁Evet": 5259,
      "▁sm": 5260,
      "omet": 5261,
      "orb": 5262,
      "▁hastan": 5263,
      "▁ürünler": 5264,
      "▁Yer": 5265,
      "lenm": 5266,
      "▁gerekiyor": 5267,
      "edeki": 5268,
      "umaş": 5269,
      "▁eğitimi": 5270,
      "ilerde": 5271,
      "▁before": 5272,
      "▁nak": 5273,
      "iğer": 5274,
      "▁evr": 5275,
      "▁rapor": 5276,
      "nG": 5277,
      "işi": 5278,
      "▁Güven": 5279,
      "ündeki": 5280,
      "▁obj": 5281,
      "▁geçer": 5282,
      "▁urun": 5283,
      "▁Sü": 5284,
      "con": 5285,
      "imd": 5286,
      "▁yönetimi": 5287,
      "▁eylem": 5288,
      "▁kus": 5289,
      "roduc": 5290,
      "▁karanlık": 5291,
      "▁çiç": 5292,
      "asındaki": 5293,
      "▁küt": 5294,
      "▁average": 5295,
      "▁alınarak": 5296,
      "ogen": 5297,
      "▁Belki": 5298,
      "liliği": 5299,
      "ars": 5300,
      "▁country": 5301,
      "▁Mec": 5302,
      "▁kıyas": 5303,
      "iyordum": 5304,
      "▁bran": 5305,
      "nu": 5306,
      "▁sız": 5307,
      "▁etkilen": 5308,
      "irt": 5309,
      "▁yapar": 5310,
      "▁ayrıntı": 5311,
      "lood": 5312,
      "dak": 5313,
      "lk": 5314,
      "ırlar": 5315,
      "▁akl": 5316,
      "▁kaybol": 5317,
      "▁rak": 5318,
      "▁Der": 5319,
      "ilerden": 5320,
      "▁learning": 5321,
      "▁yazılı": 5322,
      "ica": 5323,
      "▁dünyada": 5324,
      "▁kg": 5325,
      "▁achiev": 5326,
      "▁mesaj": 5327,
      "eleştir": 5328,
      "anan": 5329,
      "dikten": 5330,
      "▁amaçlanmıştır": 5331,
      "▁examine": 5332,
      "▁affect": 5333,
      "▁aray": 5334,
      "▁heyec": 5335,
      "▁tatlı": 5336,
      "▁hakkı": 5337,
      "▁lis": 5338,
      "▁extr": 5339,
      "▁etmeye": 5340,
      "dev": 5341,
      "▁çoğun": 5342,
      "▁hatalı": 5343,
      "▁Car": 5344,
      "▁kanal": 5345,
      "...\"": 5346,
      "▁cases": 5347,
      "▁prepared": 5348,
      "▁Efendi": 5349,
      "▁dilde": 5350,
      "▁rest": 5351,
      "▁real": 5352,
      "▁örneklem": 5353,
      "ımıza": 5354,
      "cil": 5355,
      "▁istiyorum": 5356,
      "ablish": 5357,
      "▁kullanıl": 5358,
      "▁tuz": 5359,
      "▁önceki": 5360,
      "▁Profesyonel": 5361,
      "▁dinlemek": 5362,
      "emical": 5363,
      "▁koku": 5364,
      "uğu": 5365,
      "▁ortadan": 5366,
      "▁Düz": 5367,
      "▁sürede": 5368,
      "ayi": 5369,
      "▁Dil": 5370,
      "lardaki": 5371,
      "▁Sağlık": 5372,
      "▁söylen": 5373,
      "▁potans": 5374,
      "▁cer": 5375,
      "var": 5376,
      "▁evde": 5377,
      "▁bitir": 5378,
      "▁kullanma": 5379,
      "▁instit": 5380,
      "▁survey": 5381,
      "ulma": 5382,
      "▁gene": 5383,
      "emem": 5384,
      "way": 5385,
      "▁reh": 5386,
      "▁çoğ": 5387,
      "amam": 5388,
      "lemeye": 5389,
      "öğretim": 5390,
      "▁kırmızı": 5391,
      "▁Doğu": 5392,
      "▁discussed": 5393,
      "▁again": 5394,
      "kg": 5395,
      "▁hus": 5396,
      "▁skor": 5397,
      "▁yönetic": 5398,
      "bay": 5399,
      "▁maliyet": 5400,
      "▁Yah": 5401,
      "▁kaçın": 5402,
      "▁interview": 5403,
      "▁geleneksel": 5404,
      "▁Bakan": 5405,
      "▁bazen": 5406,
      "▁İk": 5407,
      "▁yeşil": 5408,
      "ylül": 5409,
      "▁yaptır": 5410,
      "▁distrib": 5411,
      "▁Ot": 5412,
      "▁ürünleri": 5413,
      "▁pil": 5414,
      "▁aşk": 5415,
      "▁Şu": 5416,
      "▁enz": 5417,
      "▁gide": 5418,
      "▁anlayış": 5419,
      "▁Bununla": 5420,
      "▁öğrenci": 5421,
      "▁amaçla": 5422,
      "▁transfer": 5423,
      "▁psikolojik": 5424,
      "▁hassas": 5425,
      "▁gerektiğini": 5426,
      "▁exist": 5427,
      "▁seçme": 5428,
      "▁sesle": 5429,
      "ılıp": 5430,
      "▁patient": 5431,
      "▁söyled": 5432,
      "▁yapılması": 5433,
      "ectr": 5434,
      "▁deri": 5435,
      "▁materials": 5436,
      "??": 5437,
      "▁uygulanmıştır": 5438,
      "set": 5439,
      "isfaction": 5440,
      "onal": 5441,
      "▁besin": 5442,
      "▁play": 5443,
      "▁yıllık": 5444,
      "▁tool": 5445,
      "▁gelmiş": 5446,
      "bette": 5447,
      "ogn": 5448,
      "▁sağlan": 5449,
      "▁Ahmed": 5450,
      "▁possib": 5451,
      "▁lower": 5452,
      "▁tec": 5453,
      "▁çalışıyor": 5454,
      "▁girdi": 5455,
      "ales": 5456,
      "▁doz": 5457,
      "▁dokun": 5458,
      "▁hepsiburada": 5459,
      "▁•": 5460,
      "▁millet": 5461,
      "▁motiv": 5462,
      "astır": 5463,
      "▁hazn": 5464,
      "▁laborat": 5465,
      "!\\": 5466,
      "uru": 5467,
      "▁hac": 5468,
      "▁türk": 5469,
      "▁Diy": 5470,
      "▁Bek": 5471,
      "▁kaçır": 5472,
      "▁Mon": 5473,
      "utions": 5474,
      "İZ": 5475,
      "alam": 5476,
      "▁birik": 5477,
      "▁Mısır": 5478,
      "▁Deniz": 5479,
      "▁öğrenme": 5480,
      "▁rady": 5481,
      "▁situ": 5482,
      "▁karma": 5483,
      "ID": 5484,
      "▁koc": 5485,
      "▁scope": 5486,
      "atın": 5487,
      "memiş": 5488,
      "lendirme": 5489,
      "ex": 5490,
      "▁serbest": 5491,
      "▁aktivit": 5492,
      "▁yerinde": 5493,
      "▁etkileş": 5494,
      "▁tıp": 5495,
      "▁düğ": 5496,
      "▁ettir": 5497,
      "▁Cam": 5498,
      "▁Var": 5499,
      "LU": 5500,
      "▁olmuştu": 5501,
      "▁sürecinde": 5502,
      "▁evaluation": 5503,
      "raman": 5504,
      "▁Mut": 5505,
      "▁konus": 5506,
      "▁send": 5507,
      "▁kitab": 5508,
      "▁sosy": 5509,
      "▁dinleme": 5510,
      "ûn": 5511,
      "▁olmadan": 5512,
      "▁bireylerin": 5513,
      "▁aylık": 5514,
      "▁qual": 5515,
      "eyerek": 5516,
      "iciency": 5517,
      "abol": 5518,
      "▁ted": 5519,
      "▁kadının": 5520,
      "OVA": 5521,
      "▁bunları": 5522,
      "ümüş": 5523,
      "MS": 5524,
      "▁yardı": 5525,
      "▁parçası": 5526,
      "▁birinin": 5527,
      "▁Çalışmanın": 5528,
      "▁knowledge": 5529,
      "▁sonucuna": 5530,
      "▁establish": 5531,
      "ebi": 5532,
      "▁ilişkili": 5533,
      "▁Hastan": 5534,
      "nİ": 5535,
      "▁Eski": 5536,
      "▁Cev": 5537,
      "▁birer": 5538,
      "▁vatan": 5539,
      "▁parlak": 5540,
      "▁elini": 5541,
      "lerim": 5542,
      "ozluk": 5543,
      "▁Bah": 5544,
      "atör": 5545,
      "îm": 5546,
      "▁peş": 5547,
      "liyor": 5548,
      "lobal": 5549,
      "▁elektrik": 5550,
      "iran": 5551,
      "▁political": 5552,
      "▁girişim": 5553,
      "adition": 5554,
      "iya": 5555,
      "▁Fen": 5556,
      "▁bol": 5557,
      "yar": 5558,
      "▁eğlen": 5559,
      "▁build": 5560,
      "▁Program": 5561,
      "lendiril": 5562,
      "aza": 5563,
      "▁Genç": 5564,
      "Ama": 5565,
      "▁support": 5566,
      "dr": 5567,
      "elasyon": 5568,
      "▁oluşturmaktadır": 5569,
      "▁hab": 5570,
      "▁dağı": 5571,
      "▁Ekim": 5572,
      "▁cerrahi": 5573,
      "▁ded": 5574,
      "lediği": 5575,
      "▁düzeltme": 5576,
      "nH": 5577,
      "bel": 5578,
      "▁tekni": 5579,
      "▁olmay": 5580,
      "sp": 5581,
      "▁dimens": 5582,
      "▁numar": 5583,
      "teryal": 5584,
      "▁applications": 5585,
      "fik": 5586,
      "▁başlat": 5587,
      "▁örneği": 5588,
      "▁Prof": 5589,
      "▁yolc": 5590,
      "▁duruyor": 5591,
      "▁dışı": 5592,
      "▁belirlemek": 5593,
      "▁parmak": 5594,
      "▁anlamlar": 5595,
      "▁metinleri": 5596,
      "ography": 5597,
      "▁Sab": 5598,
      "▁eriş": 5599,
      "▁dikkate": 5600,
      "▁iyileştir": 5601,
      "▁Com": 5602,
      "▁state": 5603,
      "▁ucuz": 5604,
      "▁material": 5605,
      "▁yoluyla": 5606,
      "ides": 5607,
      "▁alternatif": 5608,
      "illi": 5609,
      "şir": 5610,
      "▁çay": 5611,
      "▁türü": 5612,
      "lerindeki": 5613,
      "▁gözlerini": 5614,
      "bey": 5615,
      "▁ediyordu": 5616,
      "▁Başkanı": 5617,
      "Son": 5618,
      "▁kemik": 5619,
      "kon": 5620,
      "▁yetiştir": 5621,
      "▁malzeme": 5622,
      "oad": 5623,
      "ai": 5624,
      "▁kurtul": 5625,
      "▁iOS": 5626,
      "▁yapılır": 5627,
      "▁understand": 5628,
      "sem": 5629,
      "▁araştırmalar": 5630,
      "▁Sin": 5631,
      "▁bağımlı": 5632,
      "▁iken": 5633,
      "▁böylece": 5634,
      "▁fer": 5635,
      "▁kapas": 5636,
      "▁weight": 5637,
      "▁harf": 5638,
      "▁Cümle": 5639,
      "▁Küçük": 5640,
      "▁sıvı": 5641,
      "▁ilişkisi": 5642,
      "▁yetersiz": 5643,
      "▁Tedav": 5644,
      "siy": 5645,
      "ansı": 5646,
      "▁balık": 5647,
      "▁şair": 5648,
      "unlu": 5649,
      "▁video": 5650,
      "▁any": 5651,
      "okrat": 5652,
      "▁diff": 5653,
      "izasyon": 5654,
      "ude": 5655,
      "amız": 5656,
      "▁culture": 5657,
      "ake": 5658,
      "▁consists": 5659,
      "▁Koca": 5660,
      "▁çalışmaları": 5661,
      "▁Tavsiye": 5662,
      "▁araya": 5663,
      "eder": 5664,
      "▁etkisini": 5665,
      "ength": 5666,
      "▁Yani": 5667,
      "▁anlamda": 5668,
      "▁micro": 5669,
      "▁fiyatı": 5670,
      "▁çök": 5671,
      "reen": 5672,
      "usuz": 5673,
      "los": 5674,
      "aka": 5675,
      "▁Str": 5676,
      "▁alacak": 5677,
      "▁Tah": 5678,
      "▁edebilir": 5679,
      "dun": 5680,
      "lemesi": 5681,
      "▁vb": 5682,
      "▁köt": 5683,
      "▁seçebilirsiniz": 5684,
      "▁Artık": 5685,
      "ether": 5686,
      "▁Hakk": 5687,
      "▁hom": 5688,
      "▁Onu": 5689,
      "ilecek": 5690,
      "▁Özel": 5691,
      "onun": 5692,
      "▁edilebilir": 5693,
      "▁gerekmektedir": 5694,
      "ülmüştür": 5695,
      "▁ayn": 5696,
      "▁far": 5697,
      "▁mate": 5698,
      "▁long": 5699,
      "▁Zaman": 5700,
      "ânî": 5701,
      "cek": 5702,
      "ELİ": 5703,
      "▁writ": 5704,
      "▁pencer": 5705,
      "HP": 5706,
      "▁güvenli": 5707,
      "▁yürüy": 5708,
      "▁point": 5709,
      "▁detaylı": 5710,
      "▁ola": 5711,
      "▁materyal": 5712,
      "▁beklent": 5713,
      "▁Antalya": 5714,
      "eria": 5715,
      "▁cour": 5716,
      "▁Müdür": 5717,
      "▁siyasi": 5718,
      "wards": 5719,
      "üldü": 5720,
      "▁günd": 5721,
      "IC": 5722,
      "ülasyon": 5723,
      "▁New": 5724,
      "EB": 5725,
      "▁considered": 5726,
      "İŞ": 5727,
      "▁ortala": 5728,
      "▁varlık": 5729,
      "▁ton": 5730,
      "▁ekip": 5731,
      "▁alarak": 5732,
      "▁Mev": 5733,
      "▁kenar": 5734,
      "▁reduc": 5735,
      "▁start": 5736,
      "▁Eylül": 5737,
      "▁Sadece": 5738,
      "ğe": 5739,
      "▁örgü": 5740,
      "▁investigate": 5741,
      "lif": 5742,
      "work": 5743,
      "▁elem": 5744,
      "▁arch": 5745,
      "▁vücud": 5746,
      "▁Yol": 5747,
      "▁milyondan": 5748,
      "▁dahi": 5749,
      "▁Fin": 5750,
      "▁çalışılmıştır": 5751,
      "▁özen": 5752,
      "▁similar": 5753,
      "▁sıcaklık": 5754,
      "▁Ağustos": 5755,
      "▁skills": 5756,
      "lerinizi": 5757,
      "▁ilgi": 5758,
      "▁view": 5759,
      "▁ayarlama": 5760,
      "manı": 5761,
      "rafik": 5762,
      "▁değerlendirme": 5763,
      "▁AR": 5764,
      "▁arka": 5765,
      "▁Cumhuriyet": 5766,
      "masyon": 5767,
      "▁Kral": 5768,
      "▁platformlarda": 5769,
      "▁deng": 5770,
      "▁cost": 5771,
      "asar": 5772,
      "acık": 5773,
      "▁baskı": 5774,
      "▁KAR": 5775,
      "▁sabit": 5776,
      "▁titr": 5777,
      "▁giden": 5778,
      "ıf": 5779,
      "dat": 5780,
      "meni": 5781,
      "▁Bab": 5782,
      "▁çevirisini": 5783,
      "▁gözleri": 5784,
      "▁Tez": 5785,
      "▁bulunur": 5786,
      "▁varlığı": 5787,
      "▁kral": 5788,
      "aze": 5789,
      "▁birini": 5790,
      "rial": 5791,
      "▁Min": 5792,
      "ayım": 5793,
      "▁sunar": 5794,
      "eliği": 5795,
      "▁pas": 5796,
      "osit": 5797,
      "▁dönüştür": 5798,
      "▁tarif": 5799,
      "▁Ürünü": 5800,
      "▁hücre": 5801,
      "▁giderek": 5802,
      "▁nefes": 5803,
      "▁Dav": 5804,
      "▁teslimat": 5805,
      "▁saptandı": 5806,
      "▁third": 5807,
      "▁edip": 5808,
      "rail": 5809,
      "▁Can": 5810,
      "▁sözlükleri": 5811,
      "...”": 5812,
      "emli": 5813,
      "▁açıklama": 5814,
      "▁gösterim": 5815,
      "▁gizli": 5816,
      "▁uygulaması": 5817,
      "efs": 5818,
      "▁Ya": 5819,
      "▁kayded": 5820,
      "▁mechan": 5821,
      "▁media": 5822,
      "▁kıl": 5823,
      "▁kıv": 5824,
      "▁alıyor": 5825,
      "ışın": 5826,
      "▁teşkil": 5827,
      "▁concent": 5828,
      "▁Boy": 5829,
      "▁without": 5830,
      "leyerek": 5831,
      "alarından": 5832,
      "▁Ob": 5833,
      "▁Ark": 5834,
      "▁anlamına": 5835,
      "▁doy": 5836,
      "En": 5837,
      "▁dayanıklı": 5838,
      "ahim": 5839,
      "▁sırt": 5840,
      "İS": 5841,
      "▁dijital": 5842,
      "onomik": 5843,
      "oksi": 5844,
      "▁occur": 5845,
      "▁asıl": 5846,
      "▁güz": 5847,
      "▁eng": 5848,
      "▁şik": 5849,
      "lisi": 5850,
      "▁standard": 5851,
      "▁sug": 5852,
      "▁last": 5853,
      "tsel": 5854,
      "▁Videolar": 5855,
      "cık": 5856,
      "dılar": 5857,
      "land": 5858,
      "▁tim": 5859,
      "▁language": 5860,
      "▁araştırmanın": 5861,
      "▁Zıt": 5862,
      "▁etkisinin": 5863,
      "idd": 5864,
      "▁beğen": 5865,
      "incip": 5866,
      "▁durumlarda": 5867,
      "▁indic": 5868,
      "▁Kab": 5869,
      "diğini": 5870,
      "the": 5871,
      "▁heps": 5872,
      "▁current": 5873,
      "▁Uygu": 5874,
      "âk": 5875,
      "▁Yunan": 5876,
      "▁rem": 5877,
      "▁strength": 5878,
      "▁emerg": 5879,
      "▁Ayarlar": 5880,
      "▁Fir": 5881,
      "▁Yazım": 5882,
      "▁düşündü": 5883,
      "irken": 5884,
      "dukları": 5885,
      "▁gördüğ": 5886,
      "▁training": 5887,
      "▁evaluate": 5888,
      "▁Co": 5889,
      "sul": 5890,
      "▁assess": 5891,
      "▁bilinç": 5892,
      "▁Tarihi": 5893,
      "▁karıştır": 5894,
      "âlâ": 5895,
      "▁nam": 5896,
      "ling": 5897,
      "▁okunuş": 5898,
      "▁psych": 5899,
      "▁gibiydi": 5900,
      "▁biridir": 5901,
      "▁guzel": 5902,
      "▁press": 5903,
      "▁Etim": 5904,
      "▁conf": 5905,
      "▁Spor": 5906,
      "▁birbirine": 5907,
      "▁düştü": 5908,
      "isan": 5909,
      "mit": 5910,
      "▁endiş": 5911,
      "▁Sist": 5912,
      "nel": 5913,
      "▁gere": 5914,
      "▁aksan": 5915,
      "▁egzersiz": 5916,
      "eceğiz": 5917,
      "▁Ott": 5918,
      "▁Yan": 5919,
      "▁ufak": 5920,
      "▁söylüyor": 5921,
      "▁law": 5922,
      "inizin": 5923,
      "▁Kelimelerin": 5924,
      "▁olanlar": 5925,
      "idip": 5926,
      "ori": 5927,
      "ently": 5928,
      "▁sector": 5929,
      "▁pH": 5930,
      "▁kanıt": 5931,
      "▁hastalar": 5932,
      "▁sırasını": 5933,
      "▁hır": 5934,
      "udak": 5935,
      "ically": 5936,
      "▁aksanı": 5937,
      "▁etkileyen": 5938,
      "evizyon": 5939,
      "▁yayım": 5940,
      "▁stres": 5941,
      "▁almaktadır": 5942,
      "▁işit": 5943,
      "▁arttıracak": 5944,
      "▁yılı": 5945,
      "▁Yöntem": 5946,
      "▁especially": 5947,
      "▁stress": 5948,
      "▁onay": 5949,
      "irler": 5950,
      "diğim": 5951,
      "▁make": 5952,
      "▁yapmış": 5953,
      "▁dig": 5954,
      "▁predic": 5955,
      "▁kazandır": 5956,
      "▁rüz": 5957,
      "▁types": 5958,
      "▁grubuna": 5959,
      "rug": 5960,
      "▁...": 5961,
      "▁mortal": 5962,
      "▁koruma": 5963,
      "ozisyon": 5964,
      "▁faydalan": 5965,
      "LA": 5966,
      "naire": 5967,
      "▁yedi": 5968,
      "▁light": 5969,
      "▁terk": 5970,
      "▁yerel": 5971,
      "▁mat": 5972,
      "mıyla": 5973,
      "şey": 5974,
      "▁Konya": 5975,
      "▁katı": 5976,
      "▁Dış": 5977,
      "▁Words": 5978,
      "▁tay": 5979,
      "though": 5980,
      "▁sıkı": 5981,
      "ûl": 5982,
      "▁sust": 5983,
      "▁sokak": 5984,
      "ems": 5985,
      "▁Taş": 5986,
      "III": 5987,
      "emesi": 5988,
      "▁iyice": 5989,
      "▁ust": 5990,
      "▁ülke": 5991,
      "▁dayalı": 5992,
      "▁While": 5993,
      "▁taşın": 5994,
      "abiliyor": 5995,
      "▁academ": 5996,
      "ÜK": 5997,
      "tısı": 5998,
      "▁müh": 5999,
      "▁Mo": 6000,
      "▁ürünün": 6001,
      "▁Bat": 6002,
      "acağız": 6003,
      "▁Method": 6004,
      "sim": 6005,
      "▁tüketim": 6006,
      "▁Türkçeleştir": 6007,
      "▁birisi": 6008,
      "tere": 6009,
      "▁isteğiniz": 6010,
      "▁evren": 6011,
      "▁calculated": 6012,
      "▁roman": 6013,
      "CR": 6014,
      "▁Ann": 6015,
      "▁önemi": 6016,
      "nBu": 6017,
      "DK": 6018,
      "▁offline": 6019,
      "▁iyileş": 6020,
      "▁kullanılabilir": 6021,
      "▁hastanın": 6022,
      "ied": 6023,
      "▁yapılacak": 6024,
      "▁Sey": 6025,
      "▁Arab": 6026,
      "▁beslenme": 6027,
      "▁yerini": 6028,
      "▁ilişkiler": 6029,
      "▁necess": 6030,
      "▁oyna": 6031,
      "akkabı": 6032,
      "▁ayarlardan": 6033,
      "▁sakin": 6034,
      "▁inanç": 6035,
      "▁sözlüklerin": 6036,
      "▁başta": 6037,
      "▁pain": 6038,
      "▁okunuşları": 6039,
      "och": 6040,
      "seslis": 6041,
      "▁ratio": 6042,
      "seslisozluk": 6043,
      "ındır": 6044,
      "▁kere": 6045,
      "▁kolayca": 6046,
      "▁tarihinde": 6047,
      "▁less": 6048,
      "resyon": 6049,
      "▁mol": 6050,
      "amaş": 6051,
      "▁elinde": 6052,
      "▁garantisinde": 6053,
      "ğına": 6054,
      "▁seslendiril": 6055,
      "co": 6056,
      "▁Etimoloji": 6057,
      "unları": 6058,
      "▁refer": 6059,
      "ârî": 6060,
      "udi": 6061,
      "▁kullarak": 6062,
      "▁haznenizi": 6063,
      "▁Tat": 6064,
      "▁aksanda": 6065,
      "örd": 6066,
      "▁Türkçeleştirici": 6067,
      "▁SözlükTM": 6068,
      "▁kum": 6069,
      "▁suyu": 6070,
      "▁analizleri": 6071,
      "▁verilm": 6072,
      "over": 6073,
      "▁mücadel": 6074,
      "▁çocuklar": 6075,
      "esinlikle": 6076,
      "▁fram": 6077,
      "▁zevk": 6078,
      "▁Cem": 6079,
      "▁electr": 6080,
      "ocus": 6081,
      "▁seri": 6082,
      "▁Rusya": 6083,
      "▁verilerin": 6084,
      "yım": 6085,
      "idro": 6086,
      "▁hayatı": 6087,
      "ediye": 6088,
      "▁<": 6089,
      "tığını": 6090,
      "lacağı": 6091,
      "▁inşa": 6092,
      "▁kullandım": 6093,
      "▁dönüşüm": 6094,
      "▁tradition": 6095,
      "▁çevre": 6096,
      "▁Örneğin": 6097,
      "ocial": 6098,
      "▁Aydın": 6099,
      "▁kalıcı": 6100,
      "lerken": 6101,
      "sk": 6102,
      "luded": 6103,
      "ft": 6104,
      "rag": 6105,
      "ricul": 6106,
      "▁çalışmaya": 6107,
      "▁Eur": 6108,
      "▁onunla": 6109,
      "▁duygusal": 6110,
      "▁kişilik": 6111,
      "▁delik": 6112,
      "▁akadem": 6113,
      "ikal": 6114,
      "ung": 6115,
      "▁kendilerine": 6116,
      "▁Gerçekten": 6117,
      "▁bro": 6118,
      "▁çerçevesinde": 6119,
      "▁μ": 6120,
      "pir": 6121,
      "▁düşünce": 6122,
      "▁kapalı": 6123,
      "▁ihtiyacı": 6124,
      "▁rece": 6125,
      "▁iyisi": 6126,
      "▁aracılığıyla": 6127,
      "eğe": 6128,
      "▁Br": 6129,
      "▁köp": 6130,
      "▁Günümüz": 6131,
      "seniz": 6132,
      "▁satisfaction": 6133,
      "▁city": 6134,
      "etmen": 6135,
      "orical": 6136,
      "masıyla": 6137,
      "▁dom": 6138,
      "▁uğraş": 6139,
      "▁reach": 6140,
      "▁blood": 6141,
      "▁ris": 6142,
      "▁dolayısıyla": 6143,
      "▁içinden": 6144,
      "▁oluşmaktadır": 6145,
      "abileceği": 6146,
      "▁resim": 6147,
      "kul": 6148,
      "▁Amaç": 6149,
      "▁univers": 6150,
      "leyin": 6151,
      "▁şaşır": 6152,
      "▁gu": 6153,
      "ean": 6154,
      "▁words": 6155,
      "▁İmparator": 6156,
      "▁olmadı": 6157,
      "▁primary": 6158,
      "leşti": 6159,
      "▁Çev": 6160,
      "Ay": 6161,
      "iliyor": 6162,
      "▁polis": 6163,
      "Hayır": 6164,
      "cının": 6165,
      "▁müşter": 6166,
      "▁multi": 6167,
      "▁yalan": 6168,
      "endyol": 6169,
      "▁cultural": 6170,
      "başı": 6171,
      "▁ox": 6172,
      "liğinde": 6173,
      "▁could": 6174,
      "enn": 6175,
      "▁dalg": 6176,
      "AĞ": 6177,
      "▁imkân": 6178,
      "▁yaşanan": 6179,
      "lığında": 6180,
      "▁Önc": 6181,
      "xiety": 6182,
      "ilerle": 6183,
      "▁görünüm": 6184,
      "oç": 6185,
      "▁buraya": 6186,
      "▁structures": 6187,
      "▁uğra": 6188,
      "▁resmi": 6189,
      "âf": 6190,
      "▁mesaf": 6191,
      "▁Yalnız": 6192,
      "▁Bana": 6193,
      "▁highest": 6194,
      "▁yıllar": 6195,
      "▁Sah": 6196,
      "▁nur": 6197,
      "▁başlangıç": 6198,
      "▁beklem": 6199,
      "▁mov": 6200,
      "▁Ebû": 6201,
      "▁matematik": 6202,
      "imer": 6203,
      "▁Dik": 6204,
      "▁rez": 6205,
      "tice": 6206,
      "▁Amerika": 6207,
      "ğan": 6208,
      ");": 6209,
      "▁kaynağı": 6210,
      "cılık": 6211,
      "insel": 6212,
      "▁sırasıyla": 6213,
      "ikat": 6214,
      "▁reason": 6215,
      "▁©": 6216,
      "▁gelip": 6217,
      "▁bahç": 6218,
      "▁değerlendirildi": 6219,
      "▁Herk": 6220,
      "ours": 6221,
      "▁oluşturan": 6222,
      "▁Mac": 6223,
      "▁Ter": 6224,
      "▁bulundur": 6225,
      "▁Haf": 6226,
      "▁studied": 6227,
      "gulan": 6228,
      "ty": 6229,
      "▁gal": 6230,
      "▁influ": 6231,
      "eğini": 6232,
      "ulur": 6233,
      "▁compet": 6234,
      "▁neş": 6235,
      "▁Gayet": 6236,
      "şten": 6237,
      "▁Sch": 6238,
      "▁techniques": 6239,
      "▁cancer": 6240,
      "ible": 6241,
      "layacak": 6242,
      "▁Birinci": 6243,
      "ancial": 6244,
      "▁gördüm": 6245,
      "▁öncelikle": 6246,
      "zu": 6247,
      "▁gener": 6248,
      "▁Ulus": 6249,
      "andom": 6250,
      "▁cinsel": 6251,
      "▁lezzet": 6252,
      "▁merkezi": 6253,
      "ayda": 6254,
      "▁antib": 6255,
      "meli": 6256,
      "▁IV": 6257,
      "AF": 6258,
      "%,": 6259,
      "▁created": 6260,
      "mini": 6261,
      "▁odak": 6262,
      "▁temperature": 6263,
      "▁akıllı": 6264,
      "▁yatak": 6265,
      "ımızda": 6266,
      "▁models": 6267,
      "rum": 6268,
      "opat": 6269,
      "▁bre": 6270,
      "dî": 6271,
      "▁continu": 6272,
      "▁whether": 6273,
      "▁başlı": 6274,
      "▁vakit": 6275,
      "▁takdir": 6276,
      "ültesi": 6277,
      "▁sağlığı": 6278,
      "atural": 6279,
      "▁geçiş": 6280,
      "▁yaşında": 6281,
      "▁Müslüman": 6282,
      "▁işç": 6283,
      "ebe": 6284,
      "▁hayır": 6285,
      "▁technology": 6286,
      "▁bilimsel": 6287,
      "biy": 6288,
      "dey": 6289,
      "▁olab": 6290,
      "cop": 6291,
      "▁kırık": 6292,
      "pendent": 6293,
      "▁belirgin": 6294,
      "▁kriter": 6295,
      "▁go": 6296,
      "▁göm": 6297,
      "ints": 6298,
      "UT": 6299,
      "▁bahsed": 6300,
      "▁Reg": 6301,
      "▁kalmış": 6302,
      "▁Kaliteli": 6303,
      "▁aydınlat": 6304,
      "eveyn": 6305,
      "▁sona": 6306,
      "▁tanısı": 6307,
      "▁against": 6308,
      "OD": 6309,
      "uydu": 6310,
      "▁düşünüyorum": 6311,
      "▁fazl": 6312,
      "enci": 6313,
      "BC": 6314,
      "▁taşıyan": 6315,
      "kâr": 6316,
      "▁iade": 6317,
      "▁element": 6318,
      "▁süs": 6319,
      "▁kavramı": 6320,
      "▁uygulamaları": 6321,
      "▁çabuk": 6322,
      "▁hazırlanan": 6323,
      "▁requir": 6324,
      "MR": 6325,
      "▁body": 6326,
      "▁sorunsuz": 6327,
      "▁surg": 6328,
      "▁adını": 6329,
      "▁umut": 6330,
      "▁maruz": 6331,
      "▁yaprak": 6332,
      "▁Kut": 6333,
      "▁construc": 6334,
      "▁reak": 6335,
      "▁behavior": 6336,
      "ysis": 6337,
      "zım": 6338,
      "▁önlem": 6339,
      "yer": 6340,
      "▁Nur": 6341,
      "▁Tes": 6342,
      "▁kül": 6343,
      "ülmüş": 6344,
      "illa": 6345,
      "ife": 6346,
      "▁başlar": 6347,
      "dedir": 6348,
      "ben": 6349,
      "▁Bor": 6350,
      "▁hasar": 6351,
      "PS": 6352,
      "▁Fac": 6353,
      "müştü": 6354,
      "ilmez": 6355,
      "ives": 6356,
      "▁korku": 6357,
      "tek": 6358,
      "▁bulan": 6359,
      "ather": 6360,
      "▁ört": 6361,
      "▁elements": 6362,
      "▁Hır": 6363,
      "▁buz": 6364,
      "IZ": 6365,
      "ğimiz": 6366,
      "ression": 6367,
      "diven": 6368,
      "▁yirmi": 6369,
      "idan": 6370,
      "▁sonu": 6371,
      "▁ili": 6372,
      "▁Mur": 6373,
      "▁sand": 6374,
      "▁days": 6375,
      "▁ünlü": 6376,
      "anda": 6377,
      "▁Harika": 6378,
      "jinal": 6379,
      "▁tanın": 6380,
      "▁sınırlı": 6381,
      "▁Kür": 6382,
      "▁etkiley": 6383,
      "▁Süley": 6384,
      "▁ağız": 6385,
      "▁Ottoman": 6386,
      "▁sıç": 6387,
      "▁Yok": 6388,
      "atürk": 6389,
      "▁olurdu": 6390,
      "▁male": 6391,
      "▁sekiz": 6392,
      "▁features": 6393,
      "▁BİR": 6394,
      "▁belg": 6395,
      "AV": 6396,
      "şehir": 6397,
      "▁bitki": 6398,
      "▁dip": 6399,
      "sit": 6400,
      "car": 6401,
      "▁Mayıs": 6402,
      "▁possible": 6403,
      "▁Çek": 6404,
      "▁attı": 6405,
      "▁çekti": 6406,
      "EH": 6407,
      "▁population": 6408,
      "▁PR": 6409,
      "▁princip": 6410,
      "eksi": 6411,
      "dağ": 6412,
      "▁özgü": 6413,
      "▁kullanmak": 6414,
      "▁produced": 6415,
      "▁female": 6416,
      "▁omuz": 6417,
      "▁aklı": 6418,
      "▁Ge": 6419,
      "udes": 6420,
      "▁negatif": 6421,
      "Sen": 6422,
      "▁aşa": 6423,
      "hane": 6424,
      "▁artan": 6425,
      "▁Siz": 6426,
      "▁Seç": 6427,
      "▁Haber": 6428,
      "ımızı": 6429,
      "▁çö": 6430,
      "▁implement": 6431,
      "uhaf": 6432,
      "▁parça": 6433,
      "▁sym": 6434,
      "ilerinden": 6435,
      "eşem": 6436,
      "hale": 6437,
      "▁İran": 6438,
      "ource": 6439,
      "▁gidip": 6440,
      "imat": 6441,
      "▁beğendim": 6442,
      "▁gelince": 6443,
      "ersin": 6444,
      "diy": 6445,
      "itap": 6446,
      "▁society": 6447,
      "▁Ocak": 6448,
      "▁kalab": 6449,
      "▁Ber": 6450,
      "▁eve": 6451,
      "▁etmiştir": 6452,
      "▁measured": 6453,
      "▁bilgileri": 6454,
      "▁danış": 6455,
      "▁AK": 6456,
      "ınızda": 6457,
      "▁function": 6458,
      "▁çerez": 6459,
      "▁Hüs": 6460,
      "anları": 6461,
      "▁concep": 6462,
      "▁korelasyon": 6463,
      "▁surface": 6464,
      "▁Bulgular": 6465,
      "▁advan": 6466,
      "▁etmesi": 6467,
      "ms": 6468,
      "▁göstermiştir": 6469,
      "▁suy": 6470,
      "▁işlemi": 6471,
      "▁Model": 6472,
      "YA": 6473,
      "▁kimyasal": 6474,
      "tuk": 6475,
      "▁Devleti": 6476,
      "laşık": 6477,
      "▁kısım": 6478,
      "EV": 6479,
      "▁yansı": 6480,
      "▁orman": 6481,
      "lukla": 6482,
      "▁bı": 6483,
      "▁akış": 6484,
      "dimens": 6485,
      "ights": 6486,
      "▁Tıp": 6487,
      "▁yal": 6488,
      "▁Amerik": 6489,
      "▁boyu": 6490,
      "▁tümör": 6491,
      "oterap": 6492,
      "giltere": 6493,
      "▁Sil": 6494,
      "▁tarihleri": 6495,
      "va": 6496,
      "▁denem": 6497,
      "▁Bec": 6498,
      "anya": 6499,
      "▁beklen": 6500,
      "▁rekabet": 6501,
      "allesi": 6502,
      "▁numara": 6503,
      "▁Oğ": 6504,
      "mamış": 6505,
      "▁growth": 6506,
      "▁Gül": 6507,
      "iyete": 6508,
      "▁kilo": 6509,
      "top": 6510,
      "hor": 6511,
      "▁zinc": 6512,
      "▁askeri": 6513,
      "lini": 6514,
      "▁oluşum": 6515,
      "▁satış": 6516,
      "▁los": 6517,
      "▁zamanında": 6518,
      "IT": 6519,
      "ras": 6520,
      "▁products": 6521,
      "medim": 6522,
      "lamay": 6523,
      "▁Mor": 6524,
      "▁focus": 6525,
      "▁kitabı": 6526,
      "▁provide": 6527,
      "adiş": 6528,
      "▁communication": 6529,
      "▁Bilgi": 6530,
      "İYE": 6531,
      "mede": 6532,
      "▁gerektiği": 6533,
      "tioned": 6534,
      "mos": 6535,
      "▁Sat": 6536,
      "ison": 6537,
      "santr": 6538,
      "▁Gök": 6539,
      "▁ır": 6540,
      "fed": 6541,
      "▁verildi": 6542,
      "▁case": 6543,
      "maca": 6544,
      "bür": 6545,
      "▁kadınların": 6546,
      "▁metabol": 6547,
      "▁ilgilen": 6548,
      "▁profession": 6549,
      "lack": 6550,
      "▁Nelerdir": 6551,
      "▁yönlü": 6552,
      "▁Müz": 6553,
      "melerin": 6554,
      "▁zamanı": 6555,
      "▁alışkan": 6556,
      "▁processes": 6557,
      "▁horm": 6558,
      "▁birleş": 6559,
      "▁kış": 6560,
      "▁pah": 6561,
      "▁Farklı": 6562,
      "▁index": 6563,
      "▁x": 6564,
      "▁düzenlem": 6565,
      "▁quant": 6566,
      "arya": 6567,
      "▁sus": 6568,
      "▁Peki": 6569,
      "▁Mad": 6570,
      "▁yönel": 6571,
      "▁niyet": 6572,
      "ures": 6573,
      "▁Kam": 6574,
      "artment": 6575,
      "▁kara": 6576,
      "LAN": 6577,
      "▁öngör": 6578,
      "tıcı": 6579,
      "▁coğraf": 6580,
      "▁associ": 6581,
      "▁reklam": 6582,
      "US": 6583,
      "▁klasik": 6584,
      "▁Ey": 6585,
      "▁grupta": 6586,
      "mut": 6587,
      "▁Gar": 6588,
      "▁kendilerini": 6589,
      "▁dönemi": 6590,
      "▁bekledi": 6591,
      "▁done": 6592,
      "▁İbr": 6593,
      "▁yüzü": 6594,
      "ternet": 6595,
      "▁kumaş": 6596,
      "▁Şub": 6597,
      "ojen": 6598,
      "▁measurements": 6599,
      "arat": 6600,
      "▁cüml": 6601,
      "Gün": 6602,
      "adir": 6603,
      "ağını": 6604,
      "mu": 6605,
      "▁önceden": 6606,
      "▁Başkan": 6607,
      "yu": 6608,
      "▁görülür": 6609,
      "▁çıkıyor": 6610,
      "UK": 6611,
      "▁Results": 6612,
      "▁Therefore": 6613,
      "▁Lis": 6614,
      "▁academic": 6615,
      "▁fiyatına": 6616,
      "▁icin": 6617,
      "▁Mehmet": 6618,
      "▁aims": 6619,
      "▁Fakültesi": 6620,
      "▁And": 6621,
      "▁organizational": 6622,
      "▁global": 6623,
      "▁emek": 6624,
      "▁because": 6625,
      "akat": 6626,
      "▁Tekn": 6627,
      "▁statistical": 6628,
      "▁selected": 6629,
      "▁itir": 6630,
      "▁kişilerin": 6631,
      "atal": 6632,
      "▁stage": 6633,
      "▁local": 6634,
      "ove": 6635,
      "▁deterj": 6636,
      "▁geliştirilen": 6637,
      "Çok": 6638,
      "ınd": 6639,
      "lari": 6640,
      "▁trav": 6641,
      "raz": 6642,
      "?»": 6643,
      "▁araştırılması": 6644,
      "▁arama": 6645,
      "▁ortalaması": 6646,
      "onya": 6647,
      "uyorum": 6648,
      "▁som": 6649,
      "▁hızı": 6650,
      "edia": 6651,
      "▁edici": 6652,
      "▁mesl": 6653,
      "andı": 6654,
      "laz": 6655,
      "▁arasından": 6656,
      "nC": 6657,
      "▁Açık": 6658,
      "▁ül": 6659,
      "▁memb": 6660,
      "▁detail": 6661,
      "▁schools": 6662,
      "▁değerli": 6663,
      "kenin": 6664,
      "anların": 6665,
      "▁Educ": 6666,
      "▁özellikler": 6667,
      "▁Alt": 6668,
      "IY": 6669,
      "▁Gerek": 6670,
      "▁geldiği": 6671,
      "▁historical": 6672,
      "▁faydalı": 6673,
      "▁açtı": 6674,
      "operative": 6675,
      "overn": 6676,
      "▁kanseri": 6677,
      "▁Bundan": 6678,
      "ural": 6679,
      "operatif": 6680,
      "▁diagnosis": 6681,
      "▁mekaniz": 6682,
      "▁korkunç": 6683,
      "▁bulgular": 6684,
      "brek": 6685,
      "▁gruplar": 6686,
      "▁mekân": 6687,
      "▁detected": 6688,
      "arlık": 6689,
      "▁employe": 6690,
      "▁döv": 6691,
      "post": 6692,
      "▁deg": 6693,
      "ynam": 6694,
      "▁tehdit": 6695,
      "ografi": 6696,
      "▁nerede": 6697,
      "As": 6698,
      "▁rah": 6699,
      "utes": 6700,
      "▁denk": 6701,
      "▁çıkış": 6702,
      "▁ikti": 6703,
      "▁nüfus": 6704,
      "umption": 6705,
      "▁tried": 6706,
      "evî": 6707,
      "maların": 6708,
      "▁log": 6709,
      "▁Kocaeli": 6710,
      "▁mücadele": 6711,
      "▁Fran": 6712,
      "ware": 6713,
      "▁şeye": 6714,
      "▁Kı": 6715,
      "sızlık": 6716,
      "▁kullanılması": 6717,
      "▁elb": 6718,
      "ğunu": 6719,
      "▁dö": 6720,
      "vik": 6721,
      "▁uyumlu": 6722,
      "sızın": 6723,
      "▁towards": 6724,
      "▁Pat": 6725,
      "▁Group": 6726,
      "mr": 6727,
      "ndan": 6728,
      "▁frequency": 6729,
      "▁Ur": 6730,
      "▁yiyecek": 6731,
      "istiyan": 6732,
      "▁ED": 6733,
      "▁ücretsiz": 6734,
      "▁lazım": 6735,
      "▁formu": 6736,
      "▁tasarımı": 6737,
      "▁Sır": 6738,
      "▁konuşma": 6739,
      "mm": 6740,
      "▁Nit": 6741,
      "▁bozukluk": 6742,
      "gaz": 6743,
      "▁alındı": 6744,
      "▁ölü": 6745,
      "▁taban": 6746,
      "▁expression": 6747,
      "▁dosy": 6748,
      "▁technique": 6749,
      "▁servis": 6750,
      "▁Beyaz": 6751,
      "mekten": 6752,
      "▁mektup": 6753,
      "ification": 6754,
      "▁yılları": 6755,
      "▁bölümü": 6756,
      "▁kamer": 6757,
      "▁öfk": 6758,
      "▁gösterdiği": 6759,
      "anız": 6760,
      "▁dür": 6761,
      "malarını": 6762,
      "▁performansı": 6763,
      "▁fore": 6764,
      "▁kart": 6765,
      "▁hikây": 6766,
      "izli": 6767,
      "▁gönderm": 6768,
      "▁theor": 6769,
      "▁gidiyor": 6770,
      "▁mir": 6771,
      "rof": 6772,
      "▁become": 6773,
      "ival": 6774,
      "dırma": 6775,
      "▁inhib": 6776,
      "leyic": 6777,
      "ebilirim": 6778,
      "▁adlandır": 6779,
      "▁semptom": 6780,
      "ety": 6781,
      "▁Dan": 6782,
      "▁concluded": 6783,
      "▁·": 6784,
      "uar": 6785,
      "ought": 6786,
      "▁sonsuz": 6787,
      "abz": 6788,
      "▁eklem": 6789,
      "▁Yet": 6790,
      "ülmesi": 6791,
      "▁sigara": 6792,
      "▁muhaf": 6793,
      "erler": 6794,
      "▁saygı": 6795,
      "▁great": 6796,
      "▁vermiş": 6797,
      "Her": 6798,
      "▁Yayın": 6799,
      "irk": 6800,
      "▁yorgun": 6801,
      "▁keyif": 6802,
      "▁teknoloji": 6803,
      "▁inte": 6804,
      "▁bağlamda": 6805,
      "amak": 6806,
      "▁profesyonel": 6807,
      "Or": 6808,
      "▁tarım": 6809,
      "▁görünce": 6810,
      "tics": 6811,
      "▁Erkek": 6812,
      "▁edilerek": 6813,
      "bit": 6814,
      "amet": 6815,
      "▁Dolay": 6816,
      "▁potansiyel": 6817,
      "▁yel": 6818,
      "▁Alan": 6819,
      "odu": 6820,
      "▁br": 6821,
      "ikip": 6822,
      "▁doc": 6823,
      "▁tok": 6824,
      "________": 6825,
      "lear": 6826,
      "ouse": 6827,
      "likleri": 6828,
      "▁concepts": 6829,
      "▁kod": 6830,
      "▁örgütsel": 6831,
      "▁Eng": 6832,
      "CI": 6833,
      "▁toplama": 6834,
      "▁Sı": 6835,
      "▁teaching": 6836,
      "▁gelişimi": 6837,
      "▁yerden": 6838,
      "icial": 6839,
      "do": 6840,
      "▁Sol": 6841,
      "▁Ona": 6842,
      "▁Süleyman": 6843,
      "▁Doğru": 6844,
      "elin": 6845,
      "▁miktarı": 6846,
      "▁Kitap": 6847,
      "clusion": 6848,
      "▁yaparak": 6849,
      "▁ast": 6850,
      "uşu": 6851,
      "▁imz": 6852,
      "▁heyecan": 6853,
      "pat": 6854,
      "▁bacak": 6855,
      "▁ker": 6856,
      "▁üretimi": 6857,
      "unum": 6858,
      "ördüncü": 6859,
      "▁amount": 6860,
      "ağına": 6861,
      "ists": 6862,
      "▁nitel": 6863,
      "▁tarihsel": 6864,
      "▁One": 6865,
      "▁tablo": 6866,
      "▁borç": 6867,
      "▁pul": 6868,
      "halde": 6869,
      "▁then": 6870,
      "▁sarı": 6871,
      "itir": 6872,
      "war": 6873,
      "▁Hastaların": 6874,
      "▁kayıp": 6875,
      "ÖR": 6876,
      "▁bireysel": 6877,
      "▁tabak": 6878,
      "siness": 6879,
      "omi": 6880,
      "▁güçlendir": 6881,
      "larınızı": 6882,
      "▁yıldır": 6883,
      "▁financial": 6884,
      "▁Kargo": 6885,
      "ışıklık": 6886,
      "▁Süper": 6887,
      "▁decreased": 6888,
      "amın": 6889,
      "▁Hol": 6890,
      "▁olmaktadır": 6891,
      "▁mün": 6892,
      "ılmıştı": 6893,
      "▁öğrencilerinin": 6894,
      "▁kronik": 6895,
      "▁questions": 6896,
      "▁satıcı": 6897,
      "▁deneysel": 6898,
      "▁explained": 6899,
      "liliğ": 6900,
      "▁araştırmacı": 6901,
      "▁değin": 6902,
      "▁Fransa": 6903,
      "▁flow": 6904,
      "▁küresel": 6905,
      "iği": 6906,
      "▁Güneş": 6907,
      "iller": 6908,
      "hi": 6909,
      "taş": 6910,
      "▁tor": 6911,
      "adet": 6912,
      "▁clinical": 6913,
      "▁saldırı": 6914,
      "▁consum": 6915,
      "için": 6916,
      "▁revealed": 6917,
      "alay": 6918,
      "▁bür": 6919,
      "▁century": 6920,
      "ecekti": 6921,
      "▁vatandaş": 6922,
      "TA": 6923,
      "resel": 6924,
      "▁Kaç": 6925,
      "ending": 6926,
      "▁Mahallesi": 6927,
      "iplin": 6928,
      "▁almaya": 6929,
      "OP": 6930,
      "liy": 6931,
      "▁düzeylerinin": 6932,
      "adişah": 6933,
      "▁Temmuz": 6934,
      "bat": 6935,
      "▁business": 6936,
      "▁konsantr": 6937,
      "▁Val": 6938,
      "inizde": 6939,
      "▁salladı": 6940,
      "▁hadis": 6941,
      "▁Atatürk": 6942,
      "usuna": 6943,
      "itec": 6944,
      "mesinde": 6945,
      "▁ha": 6946,
      "▁okuma": 6947,
      "ework": 6948,
      "▁yönlendir": 6949,
      "ektif": 6950,
      "▁grade": 6951,
      "▁tiss": 6952,
      "EŞ": 6953,
      "allı": 6954,
      "▁katılan": 6955,
      "▁boya": 6956,
      "itör": 6957,
      "▁yetk": 6958,
      "▁hediye": 6959,
      "▁yapacak": 6960,
      "yanın": 6961,
      "Dev": 6962,
      "▁dakik": 6963,
      "▁Hastanesi": 6964,
      "▁araştırmada": 6965,
      "omer": 6966,
      "▁emo": 6967,
      "▁prefer": 6968,
      "madığı": 6969,
      "▁aralık": 6970,
      "ets": 6971,
      "▁cells": 6972,
      "gest": 6973,
      "itler": 6974,
      "▁davet": 6975,
      "▁Şah": 6976,
      "▁path": 6977,
      "bek": 6978,
      "▁Bank": 6979,
      "▁Bugün": 6980,
      "▁duyarlı": 6981,
      "▁civ": 6982,
      "▁lütfen": 6983,
      "▁gelmiştir": 6984,
      "▁rad": 6985,
      "▁usul": 6986,
      "▁Ahmet": 6987,
      "▁hazırlan": 6988,
      "we": 6989,
      "desi": 6990,
      "▁fab": 6991,
      "▁operasyon": 6992,
      "IV": 6993,
      "▁ka": 6994,
      "▁müşteri": 6995,
      "▁hala": 6996,
      "▁plastik": 6997,
      "▁Balık": 6998,
      "▁AD": 6999,
      "▁seçenek": 7000,
      "isik": 7001,
      "▁musun": 7002,
      "şta": 7003,
      "▁sources": 7004,
      "▁fel": 7005,
      "▁distribution": 7006,
      "▁dudak": 7007,
      "▁geçerli": 7008,
      "ibility": 7009,
      "▁Sık": 7010,
      "▁bug": 7011,
      "▁dra": 7012,
      "▁salon": 7013,
      "ier": 7014,
      "▁vary": 7015,
      "▁random": 7016,
      "▁eks": 7017,
      "▁Kil": 7018,
      "▁Ag": 7019,
      "▁Mer": 7020,
      "▁tax": 7021,
      "ross": 7022,
      "▁presented": 7023,
      "▁İngiltere": 7024,
      "▁görünüyor": 7025,
      "abilm": 7026,
      "▁çağır": 7027,
      "▁adamı": 7028,
      "irc": 7029,
      "▁benzeri": 7030,
      "▁Mas": 7031,
      "üya": 7032,
      "afer": 7033,
      "ılacak": 7034,
      "▁gruba": 7035,
      "▁perception": 7036,
      "ÜZ": 7037,
      "▁Sci": 7038,
      "uzu": 7039,
      "▁Go": 7040,
      "▁üretilen": 7041,
      "pektif": 7042,
      "▁creat": 7043,
      "labilecek": 7044,
      "▁konuştu": 7045,
      "rut": 7046,
      "▁cen": 7047,
      "▁süreli": 7048,
      "▁sorunları": 7049,
      "▁gur": 7050,
      "▁ağrısı": 7051,
      "▁konfor": 7052,
      "▁ekst": 7053,
      "ılımı": 7054,
      "iyorlar": 7055,
      "▁şarkı": 7056,
      "edd": 7057,
      "ified": 7058,
      "ısıt": 7059,
      "▁endü": 7060,
      "Key": 7061,
      "▁Din": 7062,
      "▁Education": 7063,
      "irim": 7064,
      "▁Yen": 7065,
      "mad": 7066,
      "nP": 7067,
      "▁Islam": 7068,
      "▁Part": 7069,
      "▁Tom": 7070,
      "mıyorum": 7071,
      "▁vitamin": 7072,
      "▁etkiler": 7073,
      "▁hospital": 7074,
      "▁kusur": 7075,
      "Anahtar": 7076,
      "▁Kasım": 7077,
      "▁gereksin": 7078,
      "▁rates": 7079,
      "▁sınıflandır": 7080,
      "▁qualitative": 7081,
      "▁Kaf": 7082,
      "▁Paris": 7083,
      "▁büt": 7084,
      "▁pap": 7085,
      "▁situation": 7086,
      "üntü": 7087,
      "▁text": 7088,
      "▁şeker": 7089,
      "duğum": 7090,
      "üce": 7091,
      "▁bezi": 7092,
      "▁hâkim": 7093,
      "▁Sy": 7094,
      "▁Kendi": 7095,
      "▁Erz": 7096,
      "ivity": 7097,
      "osition": 7098,
      "▁kanun": 7099,
      "deniz": 7100,
      "meniz": 7101,
      "▁impact": 7102,
      "ogle": 7103,
      "▁Yat": 7104,
      "▁azından": 7105,
      "▁Elekt": 7106,
      "mail": 7107,
      "▁beyin": 7108,
      "ansiyon": 7109,
      "endis": 7110,
      "itis": 7111,
      "▁atık": 7112,
      "▁lok": 7113,
      "▁kalır": 7114,
      "forman": 7115,
      "▁şans": 7116,
      "▁herkesin": 7117,
      "▁olmasını": 7118,
      "ae": 7119,
      "▁direct": 7120,
      "âyet": 7121,
      "▁Birliği": 7122,
      "ooks": 7123,
      "lıdır": 7124,
      "▁healthy": 7125,
      "▁ikisi": 7126,
      "rika": 7127,
      "leriniz": 7128,
      "▁numun": 7129,
      "▁Cor": 7130,
      "▁ku": 7131,
      "ermal": 7132,
      "▁soft": 7133,
      "▁AT": 7134,
      "▁ağırlık": 7135,
      "▁radi": 7136,
      "▁muay": 7137,
      "▁günümüzde": 7138,
      "▁kör": 7139,
      "âde": 7140,
      "▁prens": 7141,
      "hak": 7142,
      "▁Samsun": 7143,
      "▁practic": 7144,
      "lerdeki": 7145,
      "▁species": 7146,
      "▁kahv": 7147,
      "resi": 7148,
      "▁Sanat": 7149,
      "▁durdu": 7150,
      "▁düşünm": 7151,
      "▁nesn": 7152,
      "▁sözlükte": 7153,
[...]
